{
 "<|pad|>": 0,
 "<|bos|>": 1,
 "<|eos|>": 2,
 "<|unk|>": 3,
 "<|system|>": 4,
 "<|user|>": 5,
 "<|assistant|>": 6,
 "<|end|>": 7,
 "<|think|>": 8,
 "<|answer|>": 9,
 "<|verify|>": 10,
 "<|unknown|>": 11,
 "!": 12,
 "\"": 13,
 "#": 14,
 "$": 15,
 "%": 16,
 "&": 17,
 "'": 18,
 "(": 19,
 ")": 20,
 "*": 21,
 "+": 22,
 ",": 23,
 "-": 24,
 ".": 25,
 "/": 26,
 "0": 27,
 "1": 28,
 "2": 29,
 "3": 30,
 "4": 31,
 "5": 32,
 "6": 33,
 "7": 34,
 "8": 35,
 "9": 36,
 ":": 37,
 ";": 38,
 "<": 39,
 "=": 40,
 ">": 41,
 "?": 42,
 "@": 43,
 "A": 44,
 "B": 45,
 "C": 46,
 "D": 47,
 "E": 48,
 "F": 49,
 "G": 50,
 "H": 51,
 "I": 52,
 "J": 53,
 "K": 54,
 "L": 55,
 "M": 56,
 "N": 57,
 "O": 58,
 "P": 59,
 "Q": 60,
 "R": 61,
 "S": 62,
 "T": 63,
 "U": 64,
 "V": 65,
 "W": 66,
 "X": 67,
 "Y": 68,
 "Z": 69,
 "[": 70,
 "\\": 71,
 "]": 72,
 "^": 73,
 "_": 74,
 "`": 75,
 "a": 76,
 "b": 77,
 "c": 78,
 "d": 79,
 "e": 80,
 "f": 81,
 "g": 82,
 "h": 83,
 "i": 84,
 "j": 85,
 "k": 86,
 "l": 87,
 "m": 88,
 "n": 89,
 "o": 90,
 "p": 91,
 "q": 92,
 "r": 93,
 "s": 94,
 "t": 95,
 "u": 96,
 "v": 97,
 "w": 98,
 "x": 99,
 "y": 100,
 "z": 101,
 "{": 102,
 "|": 103,
 "}": 104,
 "~": 105,
 "¡": 106,
 "¢": 107,
 "£": 108,
 "¤": 109,
 "¥": 110,
 "¦": 111,
 "§": 112,
 "¨": 113,
 "©": 114,
 "ª": 115,
 "«": 116,
 "¬": 117,
 "®": 118,
 "¯": 119,
 "°": 120,
 "±": 121,
 "²": 122,
 "³": 123,
 "´": 124,
 "µ": 125,
 "¶": 126,
 "·": 127,
 "¸": 128,
 "¹": 129,
 "º": 130,
 "»": 131,
 "¼": 132,
 "½": 133,
 "¾": 134,
 "¿": 135,
 "À": 136,
 "Á": 137,
 "Â": 138,
 "Ã": 139,
 "Ä": 140,
 "Å": 141,
 "Æ": 142,
 "Ç": 143,
 "È": 144,
 "É": 145,
 "Ê": 146,
 "Ë": 147,
 "Ì": 148,
 "Í": 149,
 "Î": 150,
 "Ï": 151,
 "Ð": 152,
 "Ñ": 153,
 "Ò": 154,
 "Ó": 155,
 "Ô": 156,
 "Õ": 157,
 "Ö": 158,
 "×": 159,
 "Ø": 160,
 "Ù": 161,
 "Ú": 162,
 "Û": 163,
 "Ü": 164,
 "Ý": 165,
 "Þ": 166,
 "ß": 167,
 "à": 168,
 "á": 169,
 "â": 170,
 "ã": 171,
 "ä": 172,
 "å": 173,
 "æ": 174,
 "ç": 175,
 "è": 176,
 "é": 177,
 "ê": 178,
 "ë": 179,
 "ì": 180,
 "í": 181,
 "î": 182,
 "ï": 183,
 "ð": 184,
 "ñ": 185,
 "ò": 186,
 "ó": 187,
 "ô": 188,
 "õ": 189,
 "ö": 190,
 "÷": 191,
 "ø": 192,
 "ù": 193,
 "ú": 194,
 "û": 195,
 "ü": 196,
 "ý": 197,
 "þ": 198,
 "ÿ": 199,
 "Ā": 200,
 "ā": 201,
 "Ă": 202,
 "ă": 203,
 "Ą": 204,
 "ą": 205,
 "Ć": 206,
 "ć": 207,
 "Ĉ": 208,
 "ĉ": 209,
 "Ċ": 210,
 "ċ": 211,
 "Č": 212,
 "č": 213,
 "Ď": 214,
 "ď": 215,
 "Đ": 216,
 "đ": 217,
 "Ē": 218,
 "ē": 219,
 "Ĕ": 220,
 "ĕ": 221,
 "Ė": 222,
 "ė": 223,
 "Ę": 224,
 "ę": 225,
 "Ě": 226,
 "ě": 227,
 "Ĝ": 228,
 "ĝ": 229,
 "Ğ": 230,
 "ğ": 231,
 "Ġ": 232,
 "ġ": 233,
 "Ģ": 234,
 "ģ": 235,
 "Ĥ": 236,
 "ĥ": 237,
 "Ħ": 238,
 "ħ": 239,
 "Ĩ": 240,
 "ĩ": 241,
 "Ī": 242,
 "ī": 243,
 "Ĭ": 244,
 "ĭ": 245,
 "Į": 246,
 "į": 247,
 "İ": 248,
 "ı": 249,
 "Ĳ": 250,
 "ĳ": 251,
 "Ĵ": 252,
 "ĵ": 253,
 "Ķ": 254,
 "ķ": 255,
 "ĸ": 256,
 "Ĺ": 257,
 "ĺ": 258,
 "Ļ": 259,
 "ļ": 260,
 "Ľ": 261,
 "ľ": 262,
 "Ŀ": 263,
 "ŀ": 264,
 "Ł": 265,
 "ł": 266,
 "Ń": 267,
 "Ġt": 268,
 "Ġa": 269,
 "in": 270,
 "he": 271,
 "čĊ": 272,
 "on": 273,
 "er": 274,
 "Ġthe": 275,
 "re": 276,
 "at": 277,
 "Ġs": 278,
 "Ġo": 279,
 "en": 280,
 "is": 281,
 "Ġc": 282,
 "ĠĠ": 283,
 "es": 284,
 "or": 285,
 "an": 286,
 "Ġf": 287,
 "it": 288,
 "Ġw": 289,
 "al": 290,
 "Ġan": 291,
 "Ġp": 292,
 "Ġof": 293,
 "ing": 294,
 "Ġin": 295,
 "ar": 296,
 "ed": 297,
 "ou": 298,
 "Ġb": 299,
 "ion": 300,
 "ic": 301,
 "Ġand": 302,
 "Ġm": 303,
 "le": 304,
 "Ġd": 305,
 "Ġto": 306,
 "as": 307,
 "ro": 308,
 "ct": 309,
 "ent": 310,
 "Ġh": 311,
 "st": 312,
 "Ġre": 313,
 "Ġth": 314,
 "Ġn": 315,
 "Ġl": 316,
 "Ġis": 317,
 "Ġe": 318,
 "il": 319,
 "om": 320,
 "ĠT": 321,
 "et": 322,
 "el": 323,
 "ol": 324,
 "ur": 325,
 "am": 326,
 "ĠĠĠĠ": 327,
 "ĠA": 328,
 "Ġg": 329,
 "im": 330,
 "ut": 331,
 "Ġ1": 332,
 "ow": 333,
 "iv": 334,
 "un": 335,
 "ĠS": 336,
 "us": 337,
 "Ġst": 338,
 "ation": 339,
 "ch": 340,
 "ĠC": 341,
 "id": 342,
 "th": 343,
 "ce": 344,
 "ĠI": 345,
 "Ġfor": 346,
 "ist": 347,
 "um": 348,
 "ra": 349,
 "ul": 350,
 "Ġy": 351,
 "ig": 352,
 "ĠP": 353,
 "ers": 354,
 "ly": 355,
 "Ġas": 356,
 "Ġ(": 357,
 "Ġon": 358,
 "ot": 359,
 "ir": 360,
 "Ġthat": 361,
 "Ġbe": 362,
 "if": 363,
 "Ġ=": 364,
 "ĠĠĠ": 365,
 "ay": 366,
 "ith": 367,
 "ate": 368,
 "ĠM": 369,
 "ĠThe": 370,
 "ad": 371,
 "Ġare": 372,
 "Ġv": 373,
 "âĢ": 374,
 "Ġpro": 375,
 "od": 376,
 "Ġ2": 377,
 "est": 378,
 "Ġyou": 379,
 "se": 380,
 "ge": 381,
 "ĠB": 382,
 "Ġit": 383,
 "ction": 384,
 "Ġcon": 385,
 "Ġwith": 386,
 "ĠH": 387,
 "qu": 388,
 "ve": 389,
 "her": 390,
 "and": 391,
 "Ġal": 392,
 "ter": 393,
 "ver": 394,
 "Ġwh": 395,
 "Ġor": 396,
 "ĠW": 397,
 "ld": 398,
 "ment": 399,
 "Ġde": 400,
 "ĠD": 401,
 "Ġcom": 402,
 "rom": 403,
 "op": 404,
 "ĠF": 405,
 "ab": 406,
 "res": 407,
 "Ġex": 408,
 "oun": 409,
 "Ġby": 410,
 "ĠE": 411,
 "ke": 412,
 "ĠR": 413,
 "ri": 414,
 "00": 415,
 "Ġus": 416,
 "em": 417,
 "ill": 418,
 "Ġwas": 419,
 "ort": 420,
 "pe": 421,
 "ac": 422,
 "ĠN": 423,
 "Ġr": 424,
 "ity": 425,
 "ant": 426,
 "os": 427,
 "Ġfrom": 428,
 "Ġhe": 429,
 "ĠL": 430,
 "ain": 431,
 "pl": 432,
 "ive": 433,
 "Ġsh": 434,
 "Ġat": 435,
 "Ġcan": 436,
 "ess": 437,
 "Ġ\"": 438,
 "ĠG": 439,
 "``": 440,
 "Ġne": 441,
 "ies": 442,
 "igh": 443,
 "Ġse": 444,
 "all": 445,
 "ore": 446,
 "ud": 447,
 "'s": 448,
 "Ġfun": 449,
 "oc": 450,
 "art": 451,
 "Ġ`": 452,
 "Ġch": 453,
 "ple": 454,
 "ber": 455,
 "pt": 456,
 "Ġsu": 457,
 "urn": 458,
 "Ġwe": 459,
 "te": 460,
 "The": 461,
 "yth": 462,
 "Ġfunction": 463,
 "our": 464,
 "ass": 465,
 "ould": 466,
 "ue": 467,
 "ine": 468,
 "Ġha": 469,
 "Ġthis": 470,
 "Ġun": 471,
 "ython": 472,
 "Ġle": 473,
 "ame": 474,
 "ĠU": 475,
 "Ġret": 476,
 "ord": 477,
 "ial": 478,
 "Ġar": 479,
 "end": 480,
 "pp": 481,
 "ary": 482,
 "ect": 483,
 "ĠIn": 484,
 "Ġ19": 485,
 "ĠO": 486,
 "og": 487,
 "age": 488,
 "ag": 489,
 "ĠĠĠĠĠĠĠ": 490,
 "Ġ-": 491,
 "ak": 492,
 "Ġim": 493,
 "Ġreturn": 494,
 "ure": 495,
 "ĠJ": 496,
 "ical": 497,
 "Ġnum": 498,
 "ring": 499,
 "ight": 500,
 "ust": 501,
 "Ġ3": 502,
 "ost": 503,
 "low": 504,
 "Ġk": 505,
 "Ġpl": 506,
 "ult": 507,
 "ich": 508,
 "ated": 509,
 "per": 510,
 "ach": 511,
 "rit": 512,
 "ide": 513,
 "int": 514,
 "put": 515,
 "Ġhave": 516,
 "ard": 517,
 "ep": 518,
 "Ġnot": 519,
 "ind": 520,
 "out": 521,
 "ict": 522,
 "act": 523,
 "iz": 524,
 "ast": 525,
 "ound": 526,
 "Ġab": 527,
 "ell": 528,
 "ie": 529,
 "ence": 530,
 "ia": 531,
 "du": 532,
 "orm": 533,
 "ong": 534,
 "gh": 535,
 "âĢĻ": 536,
 "are": 537,
 "ear": 538,
 "Ġhas": 539,
 "ome": 540,
 "ans": 541,
 "port": 542,
 "Ġwhe": 543,
 "Ġint": 544,
 "cl": 545,
 "ions": 546,
 "Ġlist": 547,
 "ere": 548,
 "ile": 549,
 "der": 550,
 "ks": 551,
 "Ġif": 552,
 "Ġcl": 553,
 "Ġwor": 554,
 "ĠY": 555,
 "Ġres": 556,
 "ef": 557,
 "ther": 558,
 "ip": 559,
 "Ġwhich": 560,
 "ap": 561,
 "Ġj": 562,
 "ĠPython": 563,
 "ous": 564,
 "):": 565,
 "ount": 566,
 "ĠIt": 567,
 "ub": 568,
 "Ġwill": 569,
 "Ġen": 570,
 "Ġper": 571,
 "Ġ'": 572,
 "cc": 573,
 "ase": 574,
 "ime": 575,
 "oo": 576,
 "ough": 577,
 "Ġshould": 578,
 "vel": 579,
 "Ġyour": 580,
 "ĠTh": 581,
 "ĠâĢ": 582,
 "Ġte": 583,
 "Ġqu": 584,
 "ents": 585,
 "irst": 586,
 "ĠK": 587,
 "Ġcont": 588,
 "ib": 589,
 "Ġone": 590,
 "ire": 591,
 "ang": 592,
 "ru": 593,
 "```": 594,
 "Ġtw": 595,
 "Ġad": 596,
 "##": 597,
 "ian": 598,
 "ory": 599,
 "ĠčĊ": 600,
 "ĠSt": 601,
 "ry": 602,
 "up": 603,
 "ations": 604,
 "av": 605,
 "fer": 606,
 "able": 607,
 "Ġ4": 608,
 "Âł": 609,
 "Ġval": 610,
 "ance": 611,
 "own": 612,
 "ren": 613,
 "ish": 614,
 "so": 615,
 "Ġme": 616,
 "xt": 617,
 "ice": 618,
 "Ġ0": 619,
 "form": 620,
 "Ġtheir": 621,
 "Ġ5": 622,
 "Ġfol": 623,
 "ign": 624,
 "),": 625,
 "sw": 626,
 "Ġdo": 627,
 "ath": 628,
 "Ġout": 629,
 "Ġ20": 630,
 "ph": 631,
 "ace": 632,
 "Ġman": 633,
 "Ġstring": 634,
 "Ġall": 635,
 "ree": 636,
 "Ġits": 637,
 "ail": 638,
 "ff": 639,
 "Ġfollow": 640,
 "Ġsc": 641,
 "mer": 642,
 "con": 643,
 "ĠĠĠĠĠĠĠĠ": 644,
 "ens": 645,
 "one": 646,
 "Ġtwo": 647,
 "Ġhis": 648,
 "iven": 649,
 "Ġnumber": 650,
 "gr": 651,
 "Ġass": 652,
 "ata": 653,
 "Ġdis": 654,
 "ater": 655,
 "Ġpr": 656,
 "Ġcomp": 657,
 "Ġfirst": 658,
 "ack": 659,
 "ces": 660,
 "Ġkn": 661,
 "ĠV": 662,
 "ates": 663,
 "ood": 664,
 "ode": 665,
 "ert": 666,
 ").": 667,
 "ition": 668,
 "ress": 669,
 "ake": 670,
 "Ġ+": 671,
 "ally": 672,
 "Ġwho": 673,
 "Ġro": 674,
 "ĠCh": 675,
 "Ġhow": 676,
 "swer": 677,
 "ild": 678,
 "key": 679,
 "Ġalso": 680,
 "Ġspe": 681,
 "Ġpart": 682,
 "Ġabout": 683,
 "Ġ[": 684,
 "Ġother": 685,
 "Ġbut": 686,
 "ener": 687,
 "ject": 688,
 "ask": 689,
 "Ġsp": 690,
 "Ġthey": 691,
 "we": 692,
 "erm": 693,
 "ne": 694,
 "ely": 695,
 "Ġyear": 696,
 "Ġnew": 697,
 "Ġdef": 698,
 "In": 699,
 "Ġele": 700,
 "Ġinto": 701,
 "Ġtr": 702,
 "ĠUn": 703,
 "Ġtra": 704,
 "ck": 705,
 "ays": 706,
 "Ġform": 707,
 "ors": 708,
 "Ġmore": 709,
 "Ġpre": 710,
 "ics": 711,
 "Ġstud": 712,
 "Ġcomm": 713,
 "Ġeach": 714,
 "ite": 715,
 "Ġgiven": 716,
 "Ġanswer": 717,
 "ov": 718,
 "Ġsy": 719,
 "Ġso": 720,
 "ĠAn": 721,
 "Ġup": 722,
 "clud": 723,
 "Ġuse": 724,
 "Ġ$": 725,
 "ĠHe": 726,
 "Ġcol": 727,
 "rite": 728,
 "Ġli": 729,
 "Ġpe": 730,
 "ew": 731,
 "..": 732,
 "Ġ6": 733,
 "ating": 734,
 "Ġdes": 735,
 "Ġbet": 736,
 "ll": 737,
 "Ġev": 738,
 "ĠWh": 739,
 "Ġbo": 740,
 "ange": 741,
 "Ġneed": 742,
 "ĠThis": 743,
 "rib": 744,
 "Ġfollowing": 745,
 "ob": 746,
 "ook": 747,
 "Ġprov": 748,
 "ink": 749,
 "les": 750,
 "elf": 751,
 "bers": 752,
 "Ġgo": 753,
 "ys": 754,
 "Ġcre": 755,
 "Ġ200": 756,
 "Ġtime": 757,
 "tern": 758,
 "Ġra": 759,
 "cul": 760,
 "akes": 761,
 "ople": 762,
 "ble": 763,
 "ool": 764,
 "Ġob": 765,
 "wn": 766,
 "ments": 767,
 "Ġprodu": 768,
 "Ġwere": 769,
 "aus": 770,
 "Ġinst": 771,
 "rough": 772,
 "Ġtask": 773,
 "ft": 774,
 "Ġrec": 775,
 "Ġser": 776,
 "Ġind": 777,
 "__": 778,
 "olog": 779,
 "ased": 780,
 "ick": 781,
 "ari": 782,
 "ose": 783,
 "orn": 784,
 "Ġunder": 785,
 "Ġbec": 786,
 "Ġsome": 787,
 "Ġthere": 788,
 "ove": 789,
 "Ġgr": 790,
 "Ġdif": 791,
 "Ġusing": 792,
 "Ġ{": 793,
 "ons": 794,
 "You": 795,
 "Ġthan": 796,
 "ient": 797,
 "Ġover": 798,
 "Ġinput": 799,
 "Ġinclud": 800,
 "gram": 801,
 "ues": 802,
 "iction": 803,
 "ise": 804,
 "Ġmost": 805,
 "Ġwhen": 806,
 "stem": 807,
 "ational": 808,
 "ween": 809,
 "Ġgener": 810,
 "hen": 811,
 "Ġimport": 812,
 "ĠEn": 813,
 "eth": 814,
 "hed": 815,
 "Ġco": 816,
 "Ġfind": 817,
 "velop": 818,
 "Ġ10": 819,
 "Ġwork": 820,
 "pr": 821,
 "get": 822,
 "ax": 823,
 "ative": 824,
 "ific": 825,
 "Ġthem": 826,
 "als": 827,
 "Ġ201": 828,
 "Ġacc": 829,
 "Ġused": 830,
 "Ġpeople": 831,
 "Ġmany": 832,
 "Ġdata": 833,
 "python": 834,
 "Ġsub": 835,
 "oint": 836,
 "Ġwhere": 837,
 "ful": 838,
 "fter": 839,
 "Ġquest": 840,
 "Ġbetween": 841,
 "Ġset": 842,
 "Ġsol": 843,
 "Ġvalue": 844,
 "Ġbeen": 845,
 "Ġspec": 846,
 "Ġchar": 847,
 "ĠPro": 848,
 "ĠIf": 849,
 "Ġdet": 850,
 "def": 851,
 "its": 852,
 "ex": 853,
 "Ġ18": 854,
 "resent": 855,
 "arch": 856,
 "ĠYou": 857,
 "Ġem": 858,
 "cre": 859,
 "ark": 860,
 "Ġstep": 861,
 "Ġx": 862,
 "ample": 863,
 "ĠRe": 864,
 "Ġbl": 865,
 "Ġlike": 866,
 "Ġclass": 867,
 "Ġthrough": 868,
 "\",": 869,
 "Ġdist": 870,
 "Ġap": 871,
 "Ġcons": 872,
 "Ġkey": 873,
 "Ġ==": 874,
 "Ġpos": 875,
 "cess": 876,
 "land": 877,
 "ings": 878,
 "Ġword": 879,
 "Ġ8": 880,
 "Ġam": 881,
 "ubl": 882,
 "Ġmay": 883,
 "Ġmod": 884,
 "Ġapp": 885,
 "Ġadd": 886,
 "20": 887,
 "arn": 888,
 "Ġ*": 889,
 "Ġ#": 890,
 "ten": 891,
 "Ġ7": 892,
 "Ġprogram": 893,
 "Th": 894,
 "Ġget": 895,
 "Ġty": 896,
 "Ġhel": 897,
 "Ġwhat": 898,
 "hes": 899,
 "ied": 900,
 "ract": 901,
 "Ġinter": 902,
 "cept": 903,
 "ution": 904,
 "Ġour": 905,
 "',": 906,
 "Ġph": 907,
 "alcul": 908,
 "Ġthese": 909,
 "Ġfl": 910,
 "ts": 911,
 "Ġdiffer": 912,
 "val": 913,
 "uring": 914,
 "Ġequ": 915,
 "ĠTo": 916,
 "meric": 917,
 "Ġany": 918,
 "ize": 919,
 "Ġmat": 920,
 "Ġno": 921,
 "eng": 922,
 "ced": 923,
 "ivers": 924,
 "Ġcount": 925,
 "Ġact": 926,
 "ric": 927,
 "Ġhelp": 928,
 "ities": 929,
 "ual": 930,
 "Ġresult": 931,
 "Ġag": 932,
 "ited": 933,
 "Ġlong": 934,
 "ular": 935,
 "chool": 936,
 "Ġfe": 937,
 "iew": 938,
 "ĠâĢĵ": 939,
 "ars": 940,
 "Ġatt": 941,
 "com": 942,
 "Ġi": 943,
 "Ġsuch": 944,
 "Ġsystem": 945,
 "reat": 946,
 "Ġrel": 947,
 "Ġonly": 948,
 "Ġrep": 949,
 "iss": 950,
 "oup": 951,
 "Ġassist": 952,
 "19": 953,
 "--": 954,
 "blem": 955,
 "Ġtakes": 956,
 "Ġ\\": 957,
 "Ġplay": 958,
 "Ġname": 959,
 "Ġher": 960,
 "Ġbu": 961,
 "()": 962,
 "ery": 963,
 "Ġcomple": 964,
 "000": 965,
 "Write": 966,
 "ĠAl": 967,
 "ife": 968,
 "ond": 969,
 "ĠAmeric": 970,
 "Ġrem": 971,
 "Ġhad": 972,
 "ting": 973,
 "Ġthen": 974,
 "aw": 975,
 "Ġreg": 976,
 "Ġwould": 977,
 "io": 978,
 "ible": 979,
 "Ġcur": 980,
 "row": 981,
 "âĢĿ": 982,
 "ower": 983,
 "raph": 984,
 "ify": 985,
 "ause": 986,
 "ray": 987,
 "Ġvari": 988,
 "plement": 989,
 "ility": 990,
 "ss": 991,
 "ures": 992,
 "ĠAr": 993,
 "Ġcall": 994,
 "Ġtrans": 995,
 "Ġassistant": 996,
 "Ġsim": 997,
 "Ġloc": 998,
 "ince": 999,
 "Ġart": 1000,
 "ĠĠĠĠĠĠĠĠĠĠĠ": 1001,
 "Ġche": 1002,
 "Ġworld": 1003,
 "Ġdiction": 1004,
 "ci": 1005,
 "Ġknow": 1006,
 "ines": 1007,
 "Ġjust": 1008,
 "ger": 1009,
 "Ġac": 1010,
 "list": 1011,
 "ĠCom": 1012,
 "cond": 1013,
 "Ġ9": 1014,
 "10": 1015,
 "Ġdevelop": 1016,
 "Ġpass": 1017,
 "string": 1018,
 "Ġext": 1019,
 "num": 1020,
 "Ġcent": 1021,
 "very": 1022,
 "Ġcode": 1023,
 "ern": 1024,
 "Ġfound": 1025,
 "old": 1026,
 "Ġinv": 1027,
 "Ġyears": 1028,
 "Ġexp": 1029,
 "ĠAI": 1030,
 "ins": 1031,
 "inal": 1032,
 "Ġknown": 1033,
 "Ġsm": 1034,
 "ily": 1035,
 "by": 1036,
 "iel": 1037,
 "cy": 1038,
 "ix": 1039,
 "Ġoff": 1040,
 "Ġexpl": 1041,
 "Ġinte": 1042,
 "erson": 1043,
 "Ġquestion": 1044,
 "Ġcontain": 1045,
 "ĠSe": 1046,
 "Ġpol": 1047,
 "Ġchild": 1048,
 "ĠWe": 1049,
 "Ġnumbers": 1050,
 "ĠQ": 1051,
 "Ġobject": 1052,
 "Ġmin": 1053,
 "to": 1054,
 "Ġafter": 1055,
 "ade": 1056,
 "red": 1057,
 "tal": 1058,
 "ĠCon": 1059,
 "Ġ/": 1060,
 "Ġpop": 1061,
 "ĠâĢľ": 1062,
 "alth": 1063,
 "ruct": 1064,
 "ron": 1065,
 "ctions": 1066,
 "Ġsent": 1067,
 "ĠHow": 1068,
 "Ġcalcul": 1069,
 "ork": 1070,
 "Ġcharact": 1071,
 "oy": 1072,
 "Ġstart": 1073,
 "Ġpar": 1074,
 "istory": 1075,
 "Ġdifferent": 1076,
 "ript": 1077,
 "ists": 1078,
 "This": 1079,
 "stand": 1080,
 "gan": 1081,
 "any": 1082,
 "ator": 1083,
 "Ġwell": 1084,
 "Ġproblem": 1085,
 "ames": 1086,
 "lect": 1087,
 "ences": 1088,
 "ious": 1089,
 "tt": 1090,
 "Ġperform": 1091,
 "Ġfil": 1092,
 "pect": 1093,
 "formation": 1094,
 "rent": 1095,
 "Ġdictionary": 1096,
 "ident": 1097,
 "Ġexample": 1098,
 "ield": 1099,
 "âĢ¢": 1100,
 "ĠFor": 1101,
 "ages": 1102,
 "Ġed": 1103,
 "Ġend": 1104,
 "Ġfact": 1105,
 "Ġlar": 1106,
 "Ġmy": 1107,
 "Ġboth": 1108,
 "co": 1109,
 "ug": 1110,
 "Ġoper": 1111,
 "vers": 1112,
 "Ġreturns": 1113,
 "Ġsur": 1114,
 "ved": 1115,
 "Ġdec": 1116,
 "))": 1117,
 "ature": 1118,
 "fore": 1119,
 "Ġsame": 1120,
 "ward": 1121,
 "Ġ12": 1122,
 "ology": 1123,
 "uc": 1124,
 "Ġ199": 1125,
 "reate": 1126,
 "ĠDe": 1127,
 "Ġeff": 1128,
 "Ġshe": 1129,
 "ĠNew": 1130,
 "uch": 1131,
 "Ġrange": 1132,
 "Ġimplement": 1133,
 "Ġsum": 1134,
 "Ġent": 1135,
 "imes": 1136,
 "Ġhigh": 1137,
 "plic": 1138,
 "air": 1139,
 "ices": 1140,
 "ute": 1141,
 "Ġthree": 1142,
 "ength": 1143,
 "Ġcor": 1144,
 "Ġfam": 1145,
 "Ġpoint": 1146,
 "ision": 1147,
 "Wh": 1148,
 "ock": 1149,
 "ĠEng": 1150,
 "ral": 1151,
 "Ġdoes": 1152,
 "ural": 1153,
 "arly": 1154,
 "Ġ<": 1155,
 "chn": 1156,
 "Ġrequ": 1157,
 "âĢĵ": 1158,
 "Ġpubl": 1159,
 "Ġmake": 1160,
 "de": 1161,
 "ty": 1162,
 "outh": 1163,
 "angu": 1164,
 "ethod": 1165,
 "Ġmain": 1166,
 "ĠHere": 1167,
 "Ġtotal": 1168,
 "Ġsa": 1169,
 "Ġ.": 1170,
 "cent": 1171,
 "ser": 1172,
 "Ġimp": 1173,
 "Ġlearn": 1174,
 "(\"": 1175,
 "Ġ15": 1176,
 "Ġsk": 1177,
 "ah": 1178,
 "ives": 1179,
 "day": 1180,
 "Ġsecond": 1181,
 "Ġbel": 1182,
 "Ġel": 1183,
 "mat": 1184,
 "Ġconst": 1185,
 "iron": 1186,
 "':": 1187,
 "ples": 1188,
 "Ġstate": 1189,
 "ted": 1190,
 "ants": 1191,
 "Ġcar": 1192,
 "ning": 1193,
 "'t": 1194,
 "Ġstr": 1195,
 "ically": 1196,
 "ale": 1197,
 "name": 1198,
 "ĠAs": 1199,
 "Ġmult": 1200,
 "Ġmon": 1201,
 "Ġprint": 1202,
 "Ġtext": 1203,
 "Ġwater": 1204,
 "word": 1205,
 "gy": 1206,
 "ined": 1207,
 "aking": 1208,
 "Ġcalled": 1209,
 "Ġmust": 1210,
 "12": 1211,
 "ished": 1212,
 "Ġduring": 1213,
 "Ġcould": 1214,
 "Ġtest": 1215,
 "hip": 1216,
 "ather": 1217,
 "lo": 1218,
 "Ġread": 1219,
 "Ġmed": 1220,
 "Ġday": 1221,
 "ĠEx": 1222,
 "tle": 1223,
 "ĠAmerican": 1224,
 "Ġprocess": 1225,
 "Ġinf": 1226,
 "other": 1227,
 "assert": 1228,
 "Ġterm": 1229,
 "Ġstudents": 1230,
 "Ġmem": 1231,
 "Ġthink": 1232,
 "irect": 1233,
 "iversity": 1234,
 "Ġgroup": 1235,
 "Ġappro": 1236,
 "Ġvalues": 1237,
 "amp": 1238,
 "oci": 1239,
 "Ġsign": 1240,
 "els": 1241,
 "ran": 1242,
 "Ġarg": 1243,
 "Ġinformation": 1244,
 "Ġlife": 1245,
 "read": 1246,
 "Ġwhile": 1247,
 "Ġunderstand": 1248,
 "ides": 1249,
 "app": 1250,
 "Ġrepresent": 1251,
 "arm": 1252,
 "An": 1253,
 "ury": 1254,
 "iqu": 1255,
 "ually": 1256,
 "Ġarea": 1257,
 "Ġprovide": 1258,
 "Ġway": 1259,
 "ets": 1260,
 "Ġbased": 1261,
 "Ġhum": 1262,
 "Ġline": 1263,
 "Ġsmall": 1264,
 "ier": 1265,
 "ism": 1266,
 "ĠWhat": 1267,
 "viron": 1268,
 "Ġorig": 1269,
 "Ġwrit": 1270,
 "Ġself": 1271,
 "ving": 1272,
 "Ġhand": 1273,
 "ody": 1274,
 "Ġschool": 1275,
 "Ġdiv": 1276,
 "the": 1277,
 "ton": 1278,
 "Ġperson": 1279,
 "Ġevery": 1280,
 "ever": 1281,
 "led": 1282,
 "Ġtake": 1283,
 "orth": 1284,
 "Ġold": 1285,
 "ized": 1286,
 "ash": 1287,
 "view": 1288,
 "Ġshow": 1289,
 "`,": 1290,
 "rict": 1291,
 "Ġcommon": 1292,
 "`.": 1293,
 "lish": 1294,
 "az": 1295,
 "gest": 1296,
 "ĠLe": 1297,
 "Ġdesc": 1298,
 "Ġins": 1299,
 "ider": 1300,
 "Ġmet": 1301,
 "ality": 1302,
 "('": 1303,
 "text": 1304,
 "pen": 1305,
 "Ġmethod": 1306,
 "oh": 1307,
 "Ġwords": 1308,
 "uss": 1309,
 "Ġresp": 1310,
 "Ġdown": 1311,
 "ases": 1312,
 "way": 1313,
 "\")": 1314,
 "ves": 1315,
 "uth": 1316,
 "Create": 1317,
 "ek": 1318,
 "ional": 1319,
 "Ġright": 1320,
 "vent": 1321,
 "par": 1322,
 "ulation": 1323,
 "icle": 1324,
 "Ġrese": 1325,
 "Ġlangu": 1326,
 "andom": 1327,
 "ok": 1328,
 "Ġhour": 1329,
 "print": 1330,
 "ĠThey": 1331,
 "Ġbeing": 1332,
 "11": 1333,
 "Ġfile": 1334,
 "Ġcurrent": 1335,
 "dition": 1336,
 "Ġ&": 1337,
 "Ġback": 1338,
 "Ġcreate": 1339,
 "vironment": 1340,
 "ĠUnited": 1341,
 "Ġmus": 1342,
 "iver": 1343,
 "ĠCl": 1344,
 "Ġbecause": 1345,
 "ason": 1346,
 "Ġtype": 1347,
 "Ġmuch": 1348,
 "ven": 1349,
 "itive": 1350,
 "Ġcomput": 1351,
 "ull": 1352,
 "Ġeven": 1353,
 "Ġsing": 1354,
 "Ġdep": 1355,
 "Ġdetail": 1356,
 "Ġsupp": 1357,
 "Ġlet": 1358,
 "ways": 1359,
 "ĠTr": 1360,
 "ument": 1361,
 "oot": 1362,
 "Ġdesign": 1363,
 "Ġgu": 1364,
 "Ġsteps": 1365,
 "ided": 1366,
 "self": 1367,
 "Ġgra": 1368,
 "Ġhealth": 1369,
 "')": 1370,
 "Ġoften": 1371,
 "ec": 1372,
 "Ġdi": 1373,
 "Ġelect": 1374,
 "son": 1375,
 "Ġlead": 1376,
 "Ġincre": 1377,
 "ĠIs": 1378,
 "ouse": 1379,
 "ĠĠĠĠĠĠĠĠĠĠĠĠĠĠĠĠ": 1380,
 "Ġest": 1381,
 "Ġown": 1382,
 "cial": 1383,
 "Ġproduct": 1384,
 "Ġconver": 1385,
 "ience": 1386,
 "Ġmil": 1387,
 "Ġexper": 1388,
 "man": 1389,
 "ital": 1390,
 "ĠSh": 1391,
 "Ġpat": 1392,
 "ĠCol": 1393,
 "au": 1394,
 "Ġtechn": 1395,
 "Ġorder": 1396,
 "Ġdr": 1397,
 "ĠInd": 1398,
 "Ġgenerate": 1399,
 "Ġocc": 1400,
 "Ġ198": 1401,
 "rodu": 1402,
 "Ġmade": 1403,
 "import": 1404,
 "Ġinstall": 1405,
 "ik": 1406,
 "orld": 1407,
 "line": 1408,
 "omet": 1409,
 "ps": 1410,
 "Ġaround": 1411,
 "ential": 1412,
 "amed": 1413,
 "gor": 1414,
 "ety": 1415,
 "Ġ|": 1416,
 "Ġbefore": 1417,
 "Ġposs": 1418,
 "],": 1419,
 "Ġcase": 1420,
 "str": 1421,
 "18": 1422,
 "aj": 1423,
 "ness": 1424,
 "ĠAd": 1425,
 "Ġchildren": 1426,
 "Ġsentence": 1427,
 "AT": 1428,
 "Ġvery": 1429,
 "Ġincluding": 1430,
 "ĠUniversity": 1431,
 "ired": 1432,
 "dict": 1433,
 "Ġcharacter": 1434,
 "Ġ,": 1435,
 "Ġcommun": 1436,
 "bs": 1437,
 "Ġtyp": 1438,
 "ĠCan": 1439,
 "50": 1440,
 "ified": 1441,
 "yn": 1442,
 "Ġlit": 1443,
 "Ġimportant": 1444,
 "urs": 1445,
 "Ġrun": 1446,
 "ability": 1447,
 "arr": 1448,
 "vern": 1449,
 "ank": 1450,
 "Ġmov": 1451,
 "ency": 1452,
 "Ġmean": 1453,
 "Ġ16": 1454,
 "Ġdirect": 1455,
 "...": 1456,
 "\":": 1457,
 "St": 1458,
 "ave": 1459,
 "Ġgre": 1460,
 "Ġwant": 1461,
 "ĠStates": 1462,
 "Ġ:": 1463,
 "Ġgl": 1464,
 "Ġpower": 1465,
 "Ġlook": 1466,
 "ĠQu": 1467,
 "Ġplan": 1468,
 "rain": 1469,
 "Ġsever": 1470,
 "Ġnow": 1471,
 "li": 1472,
 "gin": 1473,
 "ĠSp": 1474,
 "ems": 1475,
 "$$": 1476,
 "ross": 1477,
 "Ġ17": 1478,
 "Ġstudy": 1479,
 "Ġpartic": 1480,
 "Ġarray": 1481,
 "iving": 1482,
 "Ġtop": 1483,
 "ĠThere": 1484,
 "Ġlength": 1485,
 "Ġcare": 1486,
 "ball": 1487,
 "###": 1488,
 "Here": 1489,
 "ĠYour": 1490,
 "Ġ197": 1491,
 "Ġthose": 1492,
 "ird": 1493,
 "Ġcalculate": 1494,
 "Ġgive": 1495,
 "Ġbre": 1496,
 "ĠZ": 1497,
 "Ġsee": 1498,
 "Ġmax": 1499,
 "ĠSc": 1500,
 "ithm": 1501,
 "ograph": 1502,
 "Ġelements": 1503,
 "oss": 1504,
 "Ġz": 1505,
 "min": 1506,
 "uro": 1507,
 "Ġfive": 1508,
 "Ġalways": 1509,
 "sc": 1510,
 "Ä±": 1511,
 "Ġfield": 1512,
 "Ġlevel": 1513,
 "data": 1514,
 "Ġprof": 1515,
 "Ġlanguage": 1516,
 "mp": 1517,
 "IN": 1518,
 "Ġopt": 1519,
 "ner": 1520,
 "aces": 1521,
 "ror": 1522,
 "What": 1523,
 "ĠWhile": 1524,
 "Ġelement": 1525,
 "ÂłÂł": 1526,
 "Ġav": 1527,
 "Ġ11": 1528,
 "Ġfour": 1529,
 "Ġcity": 1530,
 "Ġoutput": 1531,
 "ams": 1532,
 "Ġlast": 1533,
 "value": 1534,
 "Ġless": 1535,
 "Ġbuild": 1536,
 "rect": 1537,
 "ches": 1538,
 "Ġformat": 1539,
 "of": 1540,
 "Ġcomplete": 1541,
 ".\"": 1542,
 "Ġmulti": 1543,
 "ee": 1544,
 "Ġbro": 1545,
 "Ġfood": 1546,
 "Ġsort": 1547,
 "work": 1548,
 "ression": 1549,
 "eter": 1550,
 "Ġconsider": 1551,
 "Ġ30": 1552,
 "Ġcheck": 1553,
 "Ġbook": 1554,
 "Ġdon": 1555,
 "Ġrefer": 1556,
 "**": 1557,
 "gs": 1558,
 "mb": 1559,
 "ique": 1560,
 "ohn": 1561,
 "ĠEnglish": 1562,
 "Ġstruct": 1563,
 "Ġer": 1564,
 "right": 1565,
 "Ġstand": 1566,
 "])": 1567,
 "ergy": 1568,
 "Ġplace": 1569,
 "eb": 1570,
 "irc": 1571,
 "Ġuser": 1572,
 "Ġrele": 1573,
 "ĠPh": 1574,
 "Ġwithin": 1575,
 "itle": 1576,
 "Ġeffect": 1577,
 "ived": 1578,
 "//": 1579,
 "Ġcap": 1580,
 "Ġfamily": 1581,
 "ization": 1582,
 "Ġpresent": 1583,
 "Ġhim": 1584,
 "Ġeng": 1585,
 "Ġopen": 1586,
 "und": 1587,
 "Ġref": 1588,
 "Ġrandom": 1589,
 "Ġbeh": 1590,
 "ĠWorld": 1591,
 "Ġarr": 1592,
 "ats": 1593,
 "\".": 1594,
 "Ġdeterm": 1595,
 "ON": 1596,
 "Ġagain": 1597,
 "from": 1598,
 "Ġproper": 1599,
 "Ġ100": 1600,
 "arth": 1601,
 "omen": 1602,
 "ively": 1603,
 "Ġtem": 1604,
 "osed": 1605,
 "ording": 1606,
 "itions": 1607,
 "ĠShe": 1608,
 "Ġ>": 1609,
 "ared": 1610,
 "Ġland": 1611,
 "here": 1612,
 "fully": 1613,
 "Ġgood": 1614,
 "mon": 1615,
 "Ġanal": 1616,
 "Ġinteger": 1617,
 "Ġmar": 1618,
 "Ġpopulation": 1619,
 "15": 1620,
 "ember": 1621,
 "ium": 1622,
 "ately": 1623,
 "Ġhuman": 1624,
 "imal": 1625,
 "Ġbody": 1626,
 "verage": 1627,
 "for": 1628,
 "uments": 1629,
 "Ġtri": 1630,
 "step": 1631,
 "Ġgrow": 1632,
 "Ġ14": 1633,
 "Ġhistory": 1634,
 "ĠPl": 1635,
 "Ġorgan": 1636,
 "Ġtown": 1637,
 "Ġallow": 1638,
 "Ġmill": 1639,
 "ĠÃ": 1640,
 "Ġfilm": 1641,
 "alse": 1642,
 "Ġinclude": 1643,
 "Ġprob": 1644,
 "cer": 1645,
 "Ġ196": 1646,
 "atic": 1647,
 "Ġbest": 1648,
 "Ġnon": 1649,
 "ina": 1650,
 "Ġdetailed": 1651,
 "Ġnamed": 1652,
 "30": 1653,
 "ape": 1654,
 "ĠBe": 1655,
 "Ġsl": 1656,
 "Ġvis": 1657,
 "Ġcell": 1658,
 "ior": 1659,
 "mber": 1660,
 "Ġhead": 1661,
 "ĠOn": 1662,
 "Ġappe": 1663,
 "Ġbas": 1664,
 "It": 1665,
 "alk": 1666,
 "rem": 1667,
 "vice": 1668,
 "utes": 1669,
 "iod": 1670,
 "Ġdescrib": 1671,
 "ĠAnd": 1672,
 "aren": 1673,
 "Ġeas": 1674,
 "ming": 1675,
 "ĠAt": 1676,
 "Ġactiv": 1677,
 "Ġpublic": 1678,
 "Ġdid": 1679,
 "Ġball": 1680,
 "Ġwrite": 1681,
 "Ġseries": 1682,
 "Ġsucc": 1683,
 "til": 1684,
 "Ġdisc": 1685,
 "Ġsingle": 1686,
 "riend": 1687,
 "rop": 1688,
 "inary": 1689,
 "Ġeduc": 1690,
 "Ġseveral": 1691,
 "ele": 1692,
 "my": 1693,
 "hers": 1694,
 "ula": 1695,
 "Ġcontin": 1696,
 "Ġgoal": 1697,
 "Ġenvironment": 1698,
 "Ġsupport": 1699,
 "Ġsince": 1700,
 "Ġhome": 1701,
 "Ġsqu": 1702,
 "bum": 1703,
 "Ġwithout": 1704,
 "Ġhours": 1705,
 "ling": 1706,
 "ann": 1707,
 "Ġgreat": 1708,
 "ĠAust": 1709,
 "ource": 1710,
 "ooks": 1711,
 "enn": 1712,
 "----": 1713,
 "olution": 1714,
 "apt": 1715,
 "Ġsearch": 1716,
 "Ġleft": 1717,
 "Ġmonth": 1718,
 "requ": 1719,
 "ajor": 1720,
 "Ġmeans": 1721,
 "Ġage": 1722,
 "rac": 1723,
 "Ex": 1724,
 "Ch": 1725,
 "tain": 1726,
 "Ġphys": 1727,
 "gorithm": 1728,
 "Ġcomb": 1729,
 "sh": 1730,
 "ĠBut": 1731,
 "istor": 1732,
 "Ġrad": 1733,
 "Your": 1734,
 "ense": 1735,
 "16": 1736,
 "ule": 1737,
 "ĠX": 1738,
 "Ġlo": 1739,
 "Ġpo": 1740,
 "Ġlight": 1741,
 "Ġcost": 1742,
 "ries": 1743,
 "Ġ13": 1744,
 "Ġearly": 1745,
 "Ġâ": 1746,
 "Ġfin": 1747,
 "Ġfa": 1748,
 "rix": 1749,
 "Ġtimes": 1750,
 "22": 1751,
 "oman": 1752,
 "Ġvers": 1753,
 "Ġmodel": 1754,
 "}{": 1755,
 "Ġident": 1756,
 "Ġelse": 1757,
 "Ġpossible": 1758,
 "uthor": 1759,
 "aterial": 1760,
 "plit": 1761,
 "tep": 1762,
 "Ġsit": 1763,
 "Ġrecord": 1764,
 "Ġcour": 1765,
 "ids": 1766,
 "Ġmeas": 1767,
 "nect": 1768,
 "Ġconf": 1769,
 "ĠOr": 1770,
 "hemat": 1771,
 "Ġanother": 1772,
 "Ġresearch": 1773,
 "ĠBrit": 1774,
 "be": 1775,
 "idd": 1776,
 "Ġ25": 1777,
 "Ġdra": 1778,
 "Ġair": 1779,
 "rist": 1780,
 "Ġborn": 1781,
 "Ġgovern": 1782,
 "Ġdevelopment": 1783,
 "ze": 1784,
 "ĠNational": 1785,
 "Ġaff": 1786,
 "ĠCount": 1787,
 "Ġpres": 1788,
 "Ã©": 1789,
 "Ġhy": 1790,
 "Ġsaid": 1791,
 "Ġdig": 1792,
 "Ġthough": 1793,
 "lu": 1794,
 "Ġinvol": 1795,
 "Ġdays": 1796,
 "14": 1797,
 "Ġpost": 1798,
 "rol": 1799,
 "ination": 1800,
 "Ġred": 1801,
 "une": 1802,
 "ĠSchool": 1803,
 "Ġlarge": 1804,
 "Ġ}": 1805,
 "Ġdise": 1806,
 "place": 1807,
 "ilt": 1808,
 "gers": 1809,
 "ruction": 1810,
 "ĠPr": 1811,
 "ume": 1812,
 "For": 1813,
 "Ġshort": 1814,
 "Ġdat": 1815,
 "OR": 1816,
 "Ġpract": 1817,
 "Ġtrain": 1818,
 "ene": 1819,
 "Ġcolle": 1820,
 "Ġenergy": 1821,
 "Ġarticle": 1822,
 "ivid": 1823,
 "umn": 1824,
 "Ġfew": 1825,
 "ĠMar": 1826,
 "Ġpath": 1827,
 "imate": 1828,
 "esc": 1829,
 "Ġcle": 1830,
 "Ġremain": 1831,
 "ocial": 1832,
 "ĠBl": 1833,
 "Ġmusic": 1834,
 "Ġspace": 1835,
 "ware": 1836,
 "ĠGerm": 1837,
 "ote": 1838,
 "Ġprote": 1839,
 "____": 1840,
 "25": 1841,
 "ĠCent": 1842,
 "ament": 1843,
 "ĠHowever": 1844,
 "aries": 1845,
 "ĠEuro": 1846,
 "Ġbus": 1847,
 "Ġpolit": 1848,
 "agn": 1849,
 "enc": 1850,
 "ibr": 1851,
 "conom": 1852,
 "Ġcontains": 1853,
 "ane": 1854,
 "hern": 1855,
 "Ġtool": 1856,
 "Ġuntil": 1857,
 "Ġalbum": 1858,
 "ertain": 1859,
 "input": 1860,
 "ills": 1861,
 "lease": 1862,
 "Ġlog": 1863,
 "Ġlen": 1864,
 "Ġimplementation": 1865,
 "ĠTe": 1866,
 "ĠInst": 1867,
 "Ġcountry": 1868,
 "Ġrest": 1869,
 "Ġlocated": 1870,
 "ables": 1871,
 "Ġconvert": 1872,
 "iness": 1873,
 "ards": 1874,
 "ĠSouth": 1875,
 "Re": 1876,
 "Ġchang": 1877,
 "Ġreal": 1878,
 "amb": 1879,
 "let": 1880,
 "Ġwid": 1881,
 "ĠThese": 1882,
 "ots": 1883,
 "side": 1884,
 "ava": 1885,
 "Ġsimple": 1886,
 "atural": 1887,
 "ym": 1888,
 "ending": 1889,
 "ley": 1890,
 "oms": 1891,
 "Ġvarious": 1892,
 "icult": 1893,
 "If": 1894,
 "To": 1895,
 "17": 1896,
 "Ġgame": 1897,
 "rid": 1898,
 "imum": 1899,
 "Ġstrings": 1900,
 "ĠGo": 1901,
 "Ġide": 1902,
 "ĠSo": 1903,
 "Ġperiod": 1904,
 "Ġlearning": 1905,
 "atures": 1906,
 "born": 1907,
 "Ġproject": 1908,
 "Ġquestions": 1909,
 "Ġmajor": 1910,
 "Ġteam": 1911,
 "Ġcentury": 1912,
 "ĠRes": 1913,
 "Ġinterest": 1914,
 "Ġsay": 1915,
 "Ġscient": 1916,
 "iment": 1917,
 "Ġchange": 1918,
 "There": 1919,
 "att": 1920,
 "Ġalgorithm": 1921,
 "pos": 1922,
 "Ġlater": 1923,
 "ng": 1924,
 "Ġvol": 1925,
 "Ġhere": 1926,
 "Ġlab": 1927,
 "Ġcr": 1928,
 "ĠĠčĊ": 1929,
 "hens": 1930,
 "Ġke": 1931,
 "Ġpur": 1932,
 "We": 1933,
 "ober": 1934,
 "vious": 1935,
 "Ġmaterial": 1936,
 "ources": 1937,
 "Ġ194": 1938,
 "Ġwon": 1939,
 "ales": 1940,
 "Ġreport": 1941,
 "alf": 1942,
 "Al": 1943,
 "Ġdel": 1944,
 "ently": 1945,
 "ĠWar": 1946,
 "aster": 1947,
 "ĠProv": 1948,
 "ploy": 1949,
 "ĠEurope": 1950,
 "Ġpain": 1951,
 "Ġadv": 1952,
 "13": 1953,
 "yle": 1954,
 "Ġfaith": 1955,
 "arc": 1956,
 "ER": 1957,
 "ailable": 1958,
 "ternational": 1959,
 "Ġoriginal": 1960,
 "aper": 1961,
 "bo": 1962,
 "Ġmiles": 1963,
 "Ġcharacters": 1964,
 "ĠWhen": 1965,
 "ĠJohn": 1966,
 "Ġmark": 1967,
 "Ġspecific": 1968,
 "load": 1969,
 "Ġcaus": 1970,
 "Ġuses": 1971,
 "Ġsize": 1972,
 "How": 1973,
 "Ġapplic": 1974,
 "Ġtravel": 1975,
 "icial": 1976,
 "resp": 1977,
 "Ġalong": 1978,
 "Ġpositive": 1979,
 "ott": 1980,
 "ĠAf": 1981,
 "Ġequation": 1982,
 "://": 1983,
 "Ġbecame": 1984,
 "Ġtry": 1985,
 "ww": 1986,
 "Ġspeed": 1987,
 "less": 1988,
 "ised": 1989,
 "Ġmove": 1990,
 "ĠUser": 1991,
 "ission": 1992,
 "Ġlaw": 1993,
 "aut": 1994,
 "200": 1995,
 "Ġperforming": 1996,
 "yl": 1997,
 "ering": 1998,
 "ended": 1999,
 "Ġdistance": 2000,
 "ublic": 2001,
 "Ġfoot": 2002,
 "Ġcomputer": 2003,
 "Ġview": 2004,
 "ĠGe": 2005,
 "Ġtoget": 2006,
 "inks": 2007,
 "Ġmight": 2008,
 "ged": 2009,
 "Ġflow": 2010,
 "etic": 2011,
 "Ġtogether": 2012,
 "Ġneg": 2013,
 "ither": 2014,
 "Ġsolve": 2015,
 "pre": 2016,
 "itial": 2017,
 "Ġaverage": 2018,
 "ians": 2019,
 "Ġconcept": 2020,
 "Ġcompany": 2021,
 "Ġcorrect": 2022,
 "âĢĶ": 2023,
 "Ġamount": 2024,
 "por": 2025,
 "ĠWest": 2026,
 "Ġrece": 2027,
 "Ġcomplex": 2028,
 "Ġsug": 2029,
 "Ġside": 2030,
 "Ġnext": 2031,
 "Ġweek": 2032,
 "aves": 2033,
 "ĠNorth": 2034,
 "sp": 2035,
 "py": 2036,
 "mit": 2037,
 "pty": 2038,
 "Ã¼": 2039,
 "Ġcult": 2040,
 "Ġfore": 2041,
 "Ġreview": 2042,
 "Ġworks": 2043,
 "ister": 2044,
 "med": 2045,
 "Ġstill": 2046,
 "estion": 2047,
 ");": 2048,
 "Ġaddition": 2049,
 "aring": 2050,
 "Ġindivid": 2051,
 "face": 2052,
 "ĠHis": 2053,
 "ĠCanad": 2054,
 "ĠGr": 2055,
 "Ġdistrict": 2056,
 "Ġiss": 2057,
 "ĠAustral": 2058,
 "oid": 2059,
 "Ġfriend": 2060,
 "Ġconc": 2061,
 "ĠMay": 2062,
 "à¤": 2063,
 "Ġformer": 2064,
 "Ġexplain": 2065,
 "ention": 2066,
 "erc": 2067,
 "Ġtoo": 2068,
 ".,": 2069,
 "23": 2070,
 "Ġ24": 2071,
 "ĠDist": 2072,
 "Ġtypes": 2073,
 "Con": 2074,
 "Ġnear": 2075,
 "Ġprofess": 2076,
 "ius": 2077,
 "ney": 2078,
 "Ġsw": 2079,
 "play": 2080,
 "Ġann": 2081,
 "\"\"": 2082,
 "time": 2083,
 "me": 2084,
 "Ġtu": 2085,
 "ones": 2086,
 "ĠCar": 2087,
 "Ġenc": 2088,
 "ustom": 2089,
 "Ġequal": 2090,
 "ST": 2091,
 "Ġspecial": 2092,
 "ieve": 2093,
 "Ġ50": 2094,
 "Ġstructure": 2095,
 "ĠÂł": 2096,
 "ope": 2097,
 "Ġris": 2098,
 "oice": 2099,
 "ĠAll": 2100,
 "Ġintegers": 2101,
 "Ġhapp": 2102,
 "Ġrespons": 2103,
 "Ġgen": 2104,
 "ival": 2105,
 "upp": 2106,
 "Ġpot": 2107,
 "che": 2108,
 "unic": 2109,
 "erv": 2110,
 "Ġbuilt": 2111,
 "Ġwhether": 2112,
 "anation": 2113,
 "ĠGu": 2114,
 "ole": 2115,
 "ories": 2116,
 "Ġjustify": 2117,
 "Ġsuccess": 2118,
 "ological": 2119,
 "Ġspecies": 2120,
 "Ġarguments": 2121,
 "atch": 2122,
 "apan": 2123,
 "Ġredu": 2124,
 "Ġexist": 2125,
 "Ġ$$": 2126,
 "frac": 2127,
 "ances": 2128,
 "ĠPar": 2129,
 "Ġrate": 2130,
 "Ġmillion": 2131,
 "Ġlim": 2132,
 "Ġbi": 2133,
 "Ġprovided": 2134,
 "Ġturn": 2135,
 "Ġrow": 2136,
 "Ġoccur": 2137,
 "Ġfaithfully": 2138,
 "ta": 2139,
 "oose": 2140,
 "ĠNe": 2141,
 "Ġpoints": 2142,
 "inter": 2143,
 "Ġscript": 2144,
 "bra": 2145,
 "ges": 2146,
 "ĠBritish": 2147,
 "Ġobjects": 2148,
 "cient": 2149,
 "Ġagainst": 2150,
 "Ġbecome": 2151,
 "Ġassert": 2152,
 "Ġdisease": 2153,
 "Ġavailable": 2154,
 "Ġstore": 2155,
 "Ġvill": 2156,
 "Ġ[]": 2157,
 "ma": 2158,
 "Ġproblems": 2159,
 ")`": 2160,
 "Ġdetermine": 2161,
 "Ġprom": 2162,
 "As": 2163,
 "efer": 2164,
 "Ġfull": 2165,
 "ĠII": 2166,
 "essage": 2167,
 "Ġstory": 2168,
 "Ġexam": 2169,
 "ĠJan": 2170,
 "Ġsequ": 2171,
 "Ġbelow": 2172,
 "wise": 2173,
 "Ġwebs": 2174,
 "duct": 2175,
 "Ġaccess": 2176,
 "Ġabove": 2177,
 "Ġmaking": 2178,
 "Ġreason": 2179,
 "Ġhig": 2180,
 "ĠCal": 2181,
 "Ġorigin": 2182,
 "Ġwhy": 2183,
 "Ġscience": 2184,
 "otal": 2185,
 "Ġpercent": 2186,
 "af": 2187,
 "Ġsolution": 2188,
 "Ġlocal": 2189,
 "Ġunique": 2190,
 "onse": 2191,
 "Ġinc": 2192,
 "oon": 2193,
 "osp": 2194,
 "ĠSy": 2195,
 "Ġhouse": 2196,
 "ĠâĢĶ": 2197,
 "Ġ60": 2198,
 "mod": 2199,
 "Ġey": 2200,
 "ĠFl": 2201,
 "Ġamong": 2202,
 "Ġdoc": 2203,
 "ometh": 2204,
 "LA": 2205,
 "ĠCounty": 2206,
 "not": 2207,
 "org": 2208,
 "Ġleast": 2209,
 "ilar": 2210,
 "Ġsystems": 2211,
 "augh": 2212,
 "Ġversion": 2213,
 "ram": 2214,
 "Ġask": 2215,
 "Ġlow": 2216,
 "Ġnatural": 2217,
 "Ġcommand": 2218,
 "21": 2219,
 "ocus": 2220,
 "Ġnet": 2221,
 "ĠMan": 2222,
 "Ġparticular": 2223,
 "path": 2224,
 "idence": 2225,
 "ĠUS": 2226,
 "ai": 2227,
 "Ġpair": 2228,
 "inct": 2229,
 "omething": 2230,
 "Ġtreat": 2231,
 "rees": 2232,
 "Ġwritten": 2233,
 "Ġrole": 2234,
 "Ġvalid": 2235,
 "file": 2236,
 "utions": 2237,
 "Ġkeys": 2238,
 "ration": 2239,
 "Ġsocial": 2240,
 "Ġfrequ": 2241,
 "Ġattrib": 2242,
 "Ġeconom": 2243,
 "umber": 2244,
 "col": 2245,
 "Ġestab": 2246,
 "Ġsong": 2247,
 "ternal": 2248,
 "Ġresults": 2249,
 "ography": 2250,
 "ĠMe": 2251,
 "Ġflo": 2252,
 "test": 2253,
 "ogn": 2254,
 "Ġtable": 2255,
 "Ġever": 2256,
 "cing": 2257,
 "Ġgovernment": 2258,
 "Ġwomen": 2259,
 "Ġsignific": 2260,
 ",\"": 2261,
 "ĠOne": 2262,
 "Ġauthor": 2263,
 "ysis": 2264,
 "Ġsepar": 2265,
 "Ġgraph": 2266,
 "Ġfree": 2267,
 "verse": 2268,
 "Tr": 2269,
 "([": 2270,
 "Com": 2271,
 "Ġheart": 2272,
 "Ġevent": 2273,
 "ĠJul": 2274,
 "ĠJapan": 2275,
 "though": 2276,
 "Ġaut": 2277,
 "Ġbegin": 2278,
 "Ġopp": 2279,
 "Ġcontaining": 2280,
 "pro": 2281,
 "Ġdue": 2282,
 "Ġanswering": 2283,
 "Ġtoday": 2284,
 "ae": 2285,
 "istic": 2286,
 "aced": 2287,
 "ĠChrist": 2288,
 "Ġimpro": 2289,
 "Ġ195": 2290,
 "Ġassoci": 2291,
 "wards": 2292,
 "Ġmath": 2293,
 "Ġformula": 2294,
 "Ġtree": 2295,
 "uation": 2296,
 "wh": 2297,
 "ĠNone": 2298,
 "']": 2299,
 "ĠAfric": 2300,
 "Ġant": 2301,
 "ounds": 2302,
 "ush": 2303,
 "ude": 2304,
 "Ġparam": 2305,
 "So": 2306,
 "Ġpublished": 2307,
 "arget": 2308,
 "####": 2309,
 "Ġ+=": 2310,
 "ĠCity": 2311,
 "Ġfunctions": 2312,
 "History": 2313,
 "Ġleg": 2314,
 "Ġengine": 2315,
 "Ġcirc": 2316,
 "Ġdeath": 2317,
 "Ġparen": 2318,
 "Ġarch": 2319,
 "count": 2320,
 "ription": 2321,
 "Ġkeep": 2322,
 "sum": 2323,
 "He": 2324,
 "irth": 2325,
 "Ġpattern": 2326,
 "24": 2327,
 "De": 2328,
 "Ġstat": 2329,
 "ĠDr": 2330,
 "Ġgeneral": 2331,
 "Ġmeasure": 2332,
 "Ġve": 2333,
 "Ġpopular": 2334,
 "ĠKing": 2335,
 "eters": 2336,
 "ison": 2337,
 "oin": 2338,
 "Ġcrit": 2339,
 "ĠTur": 2340,
 "Ġiter": 2341,
 "uary": 2342,
 "Ġnames": 2343,
 "lymp": 2344,
 "ĠStud": 2345,
 "Ġla": 2346,
 "Ġprim": 2347,
 "ledge": 2348,
 "dom": 2349,
 "oph": 2350,
 "ĠFirst": 2351,
 "ows": 2352,
 "add": 2353,
 "ĠNo": 2354,
 "ĠAss": 2355,
 "Ġindex": 2356,
 "Ġbase": 2357,
 "Ġhard": 2358,
 "Ġsquare": 2359,
 "Ġhistor": 2360,
 "ĠAm": 2361,
 "iddle": 2362,
 "ster": 2363,
 "ection": 2364,
 "Ġeither": 2365,
 "Ġplant": 2366,
 "Ġthings": 2367,
 "Ġ40": 2368,
 "respond": 2369,
 "Ġmen": 2370,
 "ĠMin": 2371,
 "Ġsomething": 2372,
 "ĠYork": 2373,
 "earch": 2374,
 "arl": 2375,
 "Ġnorm": 2376,
 "Ġempty": 2377,
 "Ġexcept": 2378,
 "ĠAfter": 2379,
 "Ġplayed": 2380,
 "Ġparts": 2381,
 "ĠPre": 2382,
 "Ġcome": 2383,
 "pected": 2384,
 "99": 2385,
 "reen": 2386,
 "ators": 2387,
 "Step": 2388,
 "ĠPol": 2389,
 "cover": 2390,
 "Ġport": 2391,
 "Ġdefin": 2392,
 "Ġfocus": 2393,
 "Ġways": 2394,
 "60": 2395,
 "ðĿ": 2396,
 "Ġacross": 2397,
 "cur": 2398,
 "append": 2399,
 "ĠMon": 2400,
 "Ġmathemat": 2401,
 "Ġreleased": 2402,
 "Ġdiscuss": 2403,
 "Ġtell": 2404,
 "Ġcertain": 2405,
 "icient": 2406,
 "aily": 2407,
 "Ġtransl": 2408,
 "Ġlargest": 2409,
 "words": 2410,
 "ĠRep": 2411,
 "Ġlittle": 2412,
 "math": 2413,
 "class": 2414,
 "ĠBo": 2415,
 "Ġmatch": 2416,
 "mand": 2417,
 "Ġcorrespond": 2418,
 "ler": 2419,
 "ĠHigh": 2420,
 "Ġcolumn": 2421,
 "ese": 2422,
 "Ġusually": 2423,
 "eferences": 2424,
 "ĠEach": 2425,
 "rench": 2426,
 "set": 2427,
 "ipp": 2428,
 "Ġaccept": 2429,
 "Ġprobability": 2430,
 "Now": 2431,
 "Ġdeg": 2432,
 "Ġfar": 2433,
 "Ġunits": 2434,
 "Ġexpress": 2435,
 "ĠPart": 2436,
 "Ġconnect": 2437,
 "ĠMed": 2438,
 "vices": 2439,
 "Ġcover": 2440,
 "ctor": 2441,
 "Ġworking": 2442,
 "Ġcontrol": 2443,
 "Ġfeel": 2444,
 "Ġtrue": 2445,
 "esign": 2446,
 "Ġdiff": 2447,
 "Ġaffect": 2448,
 "{\\": 2449,
 "Ġregion": 2450,
 "Ġexplanation": 2451,
 "Ġmass": 2452,
 "fun": 2453,
 "Ġhalf": 2454,
 "Ġmultiple": 2455,
 "pecial": 2456,
 "angle": 2457,
 "Ġsoft": 2458,
 "Ġtemper": 2459,
 "Ġnorth": 2460,
 "most": 2461,
 "use": 2462,
 "Ġaccur": 2463,
 "ague": 2464,
 "Ġlik": 2465,
 "ients": 2466,
 "ĠLet": 2467,
 "Ġterms": 2468,
 "Ġunderstanding": 2469,
 "gen": 2470,
 "ero": 2471,
 "ights": 2472,
 "Ġbetter": 2473,
 "Im": 2474,
 "Ġband": 2475,
 "ls": 2476,
 "eral": 2477,
 "ĠTrue": 2478,
 "Ġunit": 2479,
 "Ġblood": 2480,
 "Ġextract": 2481,
 "Ġ%": 2482,
 "Ġput": 2483,
 "Ġmot": 2484,
 "Ġcond": 2485,
 "order": 2486,
 "uck": 2487,
 "Ġable": 2488,
 "Ġteac": 2489,
 "Ġprovides": 2490,
 "Ġofficial": 2491,
 "Cl": 2492,
 "Ġrelations": 2493,
 "Ġcourse": 2494,
 "ĠAug": 2495,
 "Ġapproach": 2496,
 "left": 2497,
 "ourn": 2498,
 "ault": 2499,
 "ĠAb": 2500,
 "Ġcreated": 2501,
 "||": 2502,
 "Ġge": 2503,
 "Ġchem": 2504,
 "Ġargument": 2505,
 "ony": 2506,
 "ĠCo": 2507,
 "MAT": 2508,
 "go": 2509,
 "Ġsouth": 2510,
 "epend": 2511,
 "ĠÐ": 2512,
 "Ġpress": 2513,
 "Ġintrodu": 2514,
 "Ġothers": 2515,
 "amm": 2516,
 "ĠWith": 2517,
 "aken": 2518,
 "now": 2519,
 "len": 2520,
 "rad": 2521,
 "Ġnegative": 2522,
 "htt": 2523,
 "orial": 2524,
 "enerate": 2525,
 "Ġbasic": 2526,
 "ĠOct": 2527,
 "Ġindust": 2528,
 "ĠFalse": 2529,
 "ĠVal": 2530,
 "Ġemploy": 2531,
 "Ġbreak": 2532,
 "Ġtitle": 2533,
 "Ġpast": 2534,
 "ites": 2535,
 "Ġstre": 2536,
 "Ġess": 2537,
 "ĠFeb": 2538,
 "ĠUse": 2539,
 "Ġens": 2540,
 "Ġsun": 2541,
 "ĠChe": 2542,
 "ateg": 2543,
 "ĠThink": 2544,
 "Ġmeaning": 2545,
 "Ġcolor": 2546,
 "On": 2547,
 "Ġbegan": 2548,
 "Ġrequest": 2549,
 "Ar": 2550,
 "cks": 2551,
 "istics": 2552,
 "AS": 2553,
 "Ġmatrix": 2554,
 "cle": 2555,
 "vision": 2556,
 "Ġvillage": 2557,
 "80": 2558,
 "Ġproduced": 2559,
 "br": 2560,
 "ĠState": 2561,
 "Ġach": 2562,
 "ĠPer": 2563,
 "Ġbig": 2564,
 "wo": 2565,
 "Ġang": 2566,
 "array": 2567,
 "Ġincludes": 2568,
 "Ġstudent": 2569,
 "Ġbox": 2570,
 "Ġeducation": 2571,
 "Ġdeveloped": 2572,
 "Ġtele": 2573,
 "Ġwebsite": 2574,
 "illi": 2575,
 "aly": 2576,
 "iding": 2577,
 "ĠEarth": 2578,
 "aps": 2579,
 "Ġcontent": 2580,
 "ĠBy": 2581,
 "ĠâĢĺ": 2582,
 "ably": 2583,
 "Ġlinks": 2584,
 "Ġprevious": 2585,
 "ĠColle": 2586,
 "oney": 2587,
 "Ġsaf": 2588,
 "Ġcause": 2589,
 "ĠSol": 2590,
 "Ġfeet": 2591,
 "Ġyoung": 2592,
 "Ġareas": 2593,
 "artment": 2594,
 "Ġdraw": 2595,
 "Ġbusiness": 2596,
 "Ġ)": 2597,
 "imens": 2598,
 "ideo": 2599,
 "Ġsuggest": 2600,
 "Ġcareer": 2601,
 "Ġpage": 2602,
 "Ġhaving": 2603,
 "ĠOlymp": 2604,
 "Ġcompre": 2605,
 "100": 2606,
 "Pro": 2607,
 "Ġhelpful": 2608,
 "Ġsix": 2609,
 "Ġindic": 2610,
 "Ġtechnology": 2611,
 "Ġlower": 2612,
 "Ġbehav": 2613,
 "iter": 2614,
 "Ġsubject": 2615,
 "Ġknowledge": 2616,
 "Ġgreen": 2617,
 "icro": 2618,
 "Ġoutside": 2619,
 "oring": 2620,
 "Ġbooks": 2621,
 "ana": 2622,
 "Ã¶": 2623,
 "Un": 2624,
 "Ġmember": 2625,
 "ĠDistrict": 2626,
 "Ġinvest": 2627,
 "Ġbuilding": 2628,
 "Ġdistrib": 2629,
 "Ġmach": 2630,
 "Ġsignificant": 2631,
 "sy": 2632,
 "Ġcompet": 2633,
 "Ġcustom": 2634,
 "numbers": 2635,
 "Ġblue": 2636,
 "Ġren": 2637,
 "pril": 2638,
 "urch": 2639,
 "ĠDo": 2640,
 "rame": 2641,
 "Ġmembers": 2642,
 "ead": 2643,
 "ties": 2644,
 "Ġsimilar": 2645,
 "AR": 2646,
 "['": 2647,
 "lex": 2648,
 "raction": 2649,
 "ouble": 2650,
 "40": 2651,
 "ires": 2652,
 "obal": 2653,
 "ml": 2654,
 "acy": 2655,
 "ilities": 2656,
 "lying": 2657,
 "Ġnational": 2658,
 "ĠMarch": 2659,
 "Ġmethods": 2660,
 "Ġmodern": 2661,
 "sequ": 2662,
 "ountain": 2663,
 "References": 2664,
 "asing": 2665,
 "ĠEd": 2666,
 "ĠIts": 2667,
 "ief": 2668,
 "Ġaddress": 2669,
 "ĠĠĠĠĠĠĠĠĠĠĠĠĠĠĠ": 2670,
 "Ġimpact": 2671,
 "Ġbirth": 2672,
 "Ġanim": 2673,
 "url": 2674,
 "odes": 2675,
 "Ġminutes": 2676,
 "Ġcomprehens": 2677,
 "Ġproduction": 2678,
 "Ġcommunity": 2679,
 "ES": 2680,
 "Ġfollows": 2681,
 "Ġregular": 2682,
 "Ġcells": 2683,
 "ey": 2684,
 "Ġpotential": 2685,
 "ĠAmerica": 2686,
 "Ġpick": 2687,
 "Ġcontext": 2688,
 "Ġdate": 2689,
 "ĠFrench": 2690,
 "Ġextrem": 2691,
 "'ll": 2692,
 "Ġnecess": 2693,
 "Ġprice": 2694,
 "Ġwest": 2695,
 "Ġben": 2696,
 "ips": 2697,
 "unicip": 2698,
 "lands": 2699,
 "34": 2700,
 "Ġfig": 2701,
 "Ġlists": 2702,
 "rown": 2703,
 "Ġimage": 2704,
 "Ġitem": 2705,
 "Ġaccording": 2706,
 "Ġstandard": 2707,
 "ype": 2708,
 "ditional": 2709,
 "ruary": 2710,
 "ordin": 2711,
 "Ġmakes": 2712,
 "ried": 2713,
 "Ġweb": 2714,
 "Ġwind": 2715,
 "Ġrequire": 2716,
 "Ġinitial": 2717,
 "Ġprogramming": 2718,
 "atter": 2719,
 "ĠJune": 2720,
 "raft": 2721,
 "ĠÂ": 2722,
 "Ġstation": 2723,
 "adem": 2724,
 "ken": 2725,
 "Ġtarget": 2726,
 "Ġaway": 2727,
 "ored": 2728,
 "Ġprin": 2729,
 "roll": 2730,
 "ĠRiver": 2731,
 "'re": 2732,
 "pose": 2733,
 "ends": 2734,
 "Sc": 2735,
 "ivil": 2736,
 "Ġfootball": 2737,
 "Ġselect": 2738,
 "Ġnumer": 2739,
 "illed": 2740,
 "Ġrul": 2741,
 "ector": 2742,
 "]:": 2743,
 "aim": 2744,
 "âĢľ": 2745,
 "Ġlibr": 2746,
 "Ġconsidered": 2747,
 "ĠIm": 2748,
 "vert": 2749,
 "cember": 2750,
 "ification": 2751,
 "Ġhold": 2752,
 "Ġseason": 2753,
 "Ġlink": 2754,
 "ĠJanuary": 2755,
 "ptember": 2756,
 "Ġposition": 2757,
 "ental": 2758,
 "ump": 2759,
 "swers": 2760,
 "dd": 2761,
 "Ġvariable": 2762,
 "ĠSer": 2763,
 "cience": 2764,
 "Ġdog": 2765,
 "Ġweight": 2766,
 "date": 2767,
 "xim": 2768,
 "Ġstarted": 2769,
 "ready": 2770,
 "Ġsure": 2771,
 "ama": 2772,
 "Ġes": 2773,
 "Ġill": 2774,
 "27": 2775,
 "ĠReg": 2776,
 "64": 2777,
 "iation": 2778,
 "year": 2779,
 "^{": 2780,
 "omes": 2781,
 "ports": 2782,
 "Ġago": 2783,
 "ometimes": 2784,
 "ĠMy": 2785,
 "Ġneeds": 2786,
 "Ġancient": 2787,
 "head": 2788,
 "ung": 2789,
 "ĠOut": 2790,
 "ĠSw": 2791,
 "ovember": 2792,
 "ĠAugust": 2793,
 "urb": 2794,
 "ĠArt": 2795,
 "Ġprime": 2796,
 "aur": 2797,
 "Ġthird": 2798,
 "Ġroot": 2799,
 "ĠĠĠĠĠ": 2800,
 "abase": 2801,
 "result": 2802,
 "gebra": 2803,
 "rror": 2804,
 "Ġcases": 2805,
 "ĠHel": 2806,
 "Ġsurface": 2807,
 "bre": 2808,
 "Ġonce": 2809,
 "aching": 2810,
 "Ġet": 2811,
 "lab": 2812,
 "Ġson": 2813,
 "iting": 2814,
 "Ġrisk": 2815,
 "ext": 2816,
 "ĠCont": 2817,
 "Ġseen": 2818,
 "Ġmer": 2819,
 "Ġexpression": 2820,
 "Ġballs": 2821,
 "ched": 2822,
 "Ġ__": 2823,
 "ĠGree": 2824,
 "Ġ23": 2825,
 "Ġsequence": 2826,
 "Ġdeb": 2827,
 "Ġpie": 2828,
 "Ġder": 2829,
 "ĠThen": 2830,
 "point": 2831,
 "Ġvir": 2832,
 "Ġlive": 2833,
 "chan": 2834,
 "Ġresponse": 2835,
 "ox": 2836,
 "Ġkind": 2837,
 "Ġinflu": 2838,
 "Ġcountries": 2839,
 "Ġcorresponding": 2840,
 "reg": 2841,
 "clude": 2842,
 "Ġgoing": 2843,
 "Ġresearc": 2844,
 "Ġwriting": 2845,
 "EN": 2846,
 "Ġsource": 2847,
 "When": 2848,
 "Ġalready": 2849,
 "Ġconditions": 2850,
 "Ġnever": 2851,
 "Ġsyn": 2852,
 "ĠComm": 2853,
 "Ġsorted": 2854,
 "fact": 2855,
 "Ġwar": 2856,
 "ĠDis": 2857,
 "ging": 2858,
 "eria": 2859,
 "Ġpaper": 2860,
 "Ġcomes": 2861,
 "Ġshows": 2862,
 "ĠGerman": 2863,
 "ĠApril": 2864,
 "ille": 2865,
 "Ġ21": 2866,
 "ĠJava": 2867,
 "ello": 2868,
 "uel": 2869,
 "Ġstrong": 2870,
 "Ġver": 2871,
 "Ġwin": 2872,
 "Ġdom": 2873,
 "Ġfund": 2874,
 "number": 2875,
 "rug": 2876,
 "Ġexact": 2877,
 "Ġhandle": 2878,
 "ued": 2879,
 "Ġnp": 2880,
 "ĠUp": 2881,
 "Ġdesigned": 2882,
 "ÅŁ": 2883,
 "ociety": 2884,
 "Ġitems": 2885,
 "ĠSet": 2886,
 "ĠRoman": 2887,
 "ĠComp": 2888,
 "Ġabs": 2889,
 "Ġremove": 2890,
 "Ġsite": 2891,
 "Ġliter": 2892,
 "Ġfather": 2893,
 "Ġrelated": 2894,
 "ĠFebruary": 2895,
 "ĠCalcul": 2896,
 "ĠSome": 2897,
 "Ġtook": 2898,
 "Ġ$\\": 2899,
 "Ð¾": 2900,
 "itary": 2901,
 "ĠEl": 2902,
 "Ġincrease": 2903,
 "inst": 2904,
 "umb": 2905,
 "ĠFran": 2906,
 "ĠRuss": 2907,
 "Ġchall": 2908,
 "ĠTrans": 2909,
 "orthern": 2910,
 "ores": 2911,
 "new": 2912,
 "Ġconstant": 2913,
 "Ġfinal": 2914,
 "atory": 2915,
 "uture": 2916,
 "Ġcompon": 2917,
 "Ġrelationship": 2918,
 "Ġcy": 2919,
 "Ġphot": 2920,
 "ything": 2921,
 "rig": 2922,
 "attle": 2923,
 "Ġ22": 2924,
 "Ġsym": 2925,
 "}}": 2926,
 "split": 2927,
 "ĠEngland": 2928,
 "Ġcommunic": 2929,
 "ike": 2930,
 "ĠJuly": 2931,
 "âĢ¦": 2932,
 "Ġobser": 2933,
 "Ġserved": 2934,
 "anced": 2935,
 "Ġmaximum": 2936,
 "_{": 2937,
 "Ġtheory": 2938,
 "ising": 2939,
 "Ġep": 2940,
 "Ġmovie": 2941,
 "ĠQuestion": 2942,
 "lished": 2943,
 "with": 2944,
 "orks": 2945,
 "Ġbit": 2946,
 "Ġ--": 2947,
 "ĠRead": 2948,
 "Ġ2006": 2949,
 "Ġphysical": 2950,
 "tic": 2951,
 "rack": 2952,
 "come": 2953,
 "Ġfac": 2954,
 "Ġstates": 2955,
 "Ġplants": 2956,
 "ensor": 2957,
 "ered": 2958,
 "uted": 2959,
 "ĠBar": 2960,
 "Ġsat": 2961,
 "Ġanaly": 2962,
 "ĠEnvironment": 2963,
 "Ġdifficult": 2964,
 "33": 2965,
 "mbol": 2966,
 "Ġsays": 2967,
 "ĠSum": 2968,
 "ĠDecember": 2969,
 "Ġthought": 2970,
 "ID": 2971,
 "Ġletter": 2972,
 "Ġwhite": 2973,
 "ĠCollege": 2974,
 "ises": 2975,
 "ĠPe": 2976,
 "ĠMat": 2977,
 "Ġinstruction": 2978,
 "Ġaccount": 2979,
 "elling": 2980,
 "agement": 2981,
 "pot": 2982,
 "etime": 2983,
 "ĠHer": 2984,
 "Ġentire": 2985,
 "Ġmiss": 2986,
 "Ġnode": 2987,
 "Ġ28": 2988,
 "ured": 2989,
 "cret": 2990,
 "90": 2991,
 "ms": 2992,
 "Ġbrain": 2993,
 "length": 2994,
 "iff": 2995,
 "Ġ\"\"\"": 2996,
 "Ġ//": 2997,
 "Ġanalysis": 2998,
 "ician": 2999,
 "fect": 3000,
 "uff": 3001,
 "itect": 3002,
 "ĠSeptember": 3003,
 "bit": 3004,
 "Ġconvers": 3005,
 "Ġdiscover": 3006,
 "()`": 3007,
 "Ġchanges": 3008,
 "Ġcame": 3009,
 "Ġreally": 3010,
 "Ġcapital": 3011,
 "Ġindividual": 3012,
 "ĠOctober": 3013,
 "sort": 3014,
 "Ã¡": 3015,
 "itute": 3016,
 "itude": 3017,
 "Ġmessage": 3018,
 "Ġliving": 3019,
 "astic": 3020,
 "Ġlikely": 3021,
 "iet": 3022,
 "Ġfeatures": 3023,
 "tr": 3024,
 "Ġnight": 3025,
 "char": 3026,
 "acks": 3027,
 "Ġexperience": 3028,
 "Ġgroups": 3029,
 "ades": 3030,
 "Ġheld": 3031,
 "Ġblack": 3032,
 "Ġoperations": 3033,
 "ĠMath": 3034,
 "Develop": 3035,
 "Ġcal": 3036,
 "ĠDep": 3037,
 "ighb": 3038,
 "Ġpolitical": 3039,
 "Ġraise": 3040,
 "ĠCanada": 3041,
 "Ġfall": 3042,
 "Ġlate": 3043,
 "Ġproduce": 3044,
 "Ġproducts": 3045,
 "uk": 3046,
 "Ġprotect": 3047,
 ".âĢĿ": 3048,
 "itor": 3049,
 "Ġbr": 3050,
 "Ġreplace": 3051,
 "Ġ27": 3052,
 "AN": 3053,
 "iforn": 3054,
 "Ġevents": 3055,
 "Ġplayer": 3056,
 "PI": 3057,
 "à¦": 3058,
 "Ġbinary": 3059,
 "Qu": 3060,
 "Ġtools": 3061,
 "Pl": 3062,
 "ivity": 3063,
 "Ġcancer": 3064,
 "Ġcannot": 3065,
 "ĠAp": 3066,
 "ructions": 3067,
 "Ġallows": 3068,
 "ĠNovember": 3069,
 "Ġassociated": 3070,
 "36": 3071,
 "json": 3072,
 "ortun": 3073,
 "west": 3074,
 "Ġfactors": 3075,
 "Ġbehind": 3076,
 "Ġappear": 3077,
 "ront": 3078,
 "Ġrock": 3079,
 "hood": 3080,
 "Error": 3081,
 "Ġfilter": 3082,
 "rm": 3083,
 "Ġquick": 3084,
 "Ġbar": 3085,
 "ĠAcc": 3086,
 "Ġrepresenting": 3087,
 "urg": 3088,
 "Ġsuper": 3089,
 "Ġintegr": 3090,
 "Ġexc": 3091,
 "Ġskills": 3092,
 "da": 3093,
 "dis": 3094,
 "sel": 3095,
 "Ġnetwork": 3096,
 "ham": 3097,
 "Ġprevent": 3098,
 "Ġpractice": 3099,
 "Ġdifference": 3100,
 "Ġrequired": 3101,
 "max": 3102,
 "Ġsal": 3103,
 "ground": 3104,
 "Ġmaintain": 3105,
 "Ġpay": 3106,
 "Ġpack": 3107,
 "Ġmeet": 3108,
 "Ġbenef": 3109,
 "IS": 3110,
 "Ġvideo": 3111,
 "++": 3112,
 "action": 3113,
 "Ġlot": 3114,
 "Ġrecogn": 3115,
 "cast": 3116,
 "Ġmunicip": 3117,
 "efore": 3118,
 "Ġtaken": 3119,
 "resents": 3120,
 "log": 3121,
 "ender": 3122,
 "Ġlines": 3123,
 "Ġtuple": 3124,
 "ifornia": 3125,
 "ĠEm": 3126,
 "pecially": 3127,
 "Ġcondition": 3128,
 "Ġdocument": 3129,
 "Ġapplication": 3130,
 "icles": 3131,
 "ift": 3132,
 "Ġled": 3133,
 "izing": 3134,
 "anish": 3135,
 "ops": 3136,
 "Ġdeep": 3137,
 "Ġspecified": 3138,
 "ara": 3139,
 "28": 3140,
 "Ġneeded": 3141,
 "bon": 3142,
 "Ġgames": 3143,
 "ption": 3144,
 "....": 3145,
 "Ġmodule": 3146,
 "Ðµ": 3147,
 "Ġnormal": 3148,
 "ĠDef": 3149,
 "ounter": 3150,
 "sub": 3151,
 "ĠSim": 3152,
 "Ġitself": 3153,
 "oad": 3154,
 "Ġloss": 3155,
 "Ġapproxim": 3156,
 "ino": 3157,
 "AL": 3158,
 "ils": 3159,
 "ĠThat": 3160,
 "Ġcontrib": 3161,
 "():": 3162,
 "asc": 3163,
 "True": 3164,
 "Ġcop": 3165,
 "ĠĠĠĠčĊ": 3166,
 "duc": 3167,
 "Ġrespect": 3168,
 "ares": 3169,
 "Ġanswers": 3170,
 "ply": 3171,
 "urther": 3172,
 "abit": 3173,
 "Ġjob": 3174,
 "Ġcurrently": 3175,
 "oud": 3176,
 "Ġclos": 3177,
 "Ġperformance": 3178,
 "Ġlevels": 3179,
 "Ġpri": 3180,
 "Ġactivities": 3181,
 "Ġservice": 3182,
 "SON": 3183,
 "Ġquant": 3184,
 "Ġrepresents": 3185,
 "::": 3186,
 "na": 3187,
 "II": 3188,
 "rel": 3189,
 "Ġsubst": 3190,
 "][": 3191,
 "Ġpriv": 3192,
 "sq": 3193,
 "Ð°": 3194,
 "ream": 3195,
 "Ġlay": 3196,
 "ĠPres": 3197,
 "Ġground": 3198,
 "Ġter": 3199,
 "pri": 3200,
 "abet": 3201,
 "Ġaction": 3202,
 "Ġmid": 3203,
 "init": 3204,
 "Ġnecessary": 3205,
 "over": 3206,
 "Ġ...": 3207,
 "Ġdest": 3208,
 "Ġimm": 3209,
 "'m": 3210,
 "Ġforce": 3211,
 "ĠPark": 3212,
 "ĠNow": 3213,
 "Ġresources": 3214,
 "Ġenough": 3215,
 "nown": 3216,
 "Ġroom": 3217,
 "ĠIndian": 3218,
 "}$": 3219,
 "like": 3220,
 "01": 3221,
 "Ġgreater": 3222,
 "Ġplaces": 3223,
 "ĠCalifornia": 3224,
 "ference": 3225,
 "ournal": 3226,
 "Ġrev": 3227,
 "ridge": 3228,
 "ĠAng": 3229,
 "Ġestablished": 3230,
 "Ġfuture": 3231,
 "Ġstyle": 3232,
 "ĠHar": 3233,
 "Ġexec": 3234,
 "Ġround": 3235,
 "Ġnovel": 3236,
 "Ġgrowth": 3237,
 "Ġaccurate": 3238,
 "ux": 3239,
 "otes": 3240,
 "ĠDay": 3241,
 "ÂłÂłÂłÂł": 3242,
 "75": 3243,
 "Ġ2012": 3244,
 "Ġmultip": 3245,
 "ĠAustralia": 3246,
 "ĠSystem": 3247,
 "where": 3248,
 "Ġcut": 3249,
 "empt": 3250,
 "ĠProvince": 3251,
 "Ġimprove": 3252,
 "Ġpers": 3253,
 "iles": 3254,
 "ĠAc": 3255,
 "ĠEuropean": 3256,
 "'.": 3257,
 "32": 3258,
 "eds": 3259,
 "Ġdone": 3260,
 "Ġonline": 3261,
 "based": 3262,
 "itution": 3263,
 "Ġability": 3264,
 "Ġstatement": 3265,
 "ET": 3266,
 "clus": 3267,
 "35": 3268,
 "En": 3269,
 "Ġ->": 3270,
 "ĠAct": 3271,
 "ĠFin": 3272,
 "iful": 3273,
 "Ġformed": 3274,
 "ixed": 3275,
 "Ġclub": 3276,
 "Ġsound": 3277,
 "Ġleading": 3278,
 "Ġidea": 3279,
 "Ġtemperature": 3280,
 "Ġgas": 3281,
 "Ġlives": 3282,
 "ĠCreate": 3283,
 "ĠUnder": 3284,
 "Ġelectric": 3285,
 "Ġglobal": 3286,
 "Ġextremely": 3287,
 "BC": 3288,
 "Ġoffer": 3289,
 "Ġ2010": 3290,
 "ĠCor": 3291,
 "ached": 3292,
 "Ġwhose": 3293,
 "Ġdefinition": 3294,
 "Ġroad": 3295,
 "Ġmonths": 3296,
 "Ġdefined": 3297,
 ",âĢĿ": 3298,
 "uz": 3299,
 "Ġmoney": 3300,
 "Ġlove": 3301,
 "Ġindepend": 3302,
 "Ġanimals": 3303,
 "Hello": 3304,
 "Ġdaily": 3305,
 "ondon": 3306,
 "Ġfamil": 3307,
 "ĠIndia": 3308,
 "--------": 3309,
 "sych": 3310,
 "Ġut": 3311,
 "istance": 3312,
 "ĠDav": 3313,
 "Ġevidence": 3314,
 "Ġmaterials": 3315,
 "Ġthroughout": 3316,
 "hel": 3317,
 "plied": 3318,
 "26": 3319,
 "light": 3320,
 "Ġattribute": 3321,
 "ica": 3322,
 "Ġdatabase": 3323,
 "tml": 3324,
 "Ġsoftware": 3325,
 "Ġhigher": 3326,
 "Ġtalk": 3327,
 "outhern": 3328,
 "Ġbroad": 3329,
 "Ġeasy": 3330,
 "Ġespecially": 3331,
 "FOR": 3332,
 "gress": 3333,
 "ky": 3334,
 "ĠSince": 3335,
 "Ġproperties": 3336,
 "Ġmind": 3337,
 "vey": 3338,
 "},": 3339,
 "Ġconsum": 3340,
 "RL": 3341,
 "}\\": 3342,
 "Ġ26": 3343,
 "rance": 3344,
 "ters": 3345,
 "Ġcamp": 3346,
 "Ġmeters": 3347,
 "aff": 3348,
 "Ġfriends": 3349,
 "Ġresearchers": 3350,
 "aging": 3351,
 "Ġreading": 3352,
 "Ġchemical": 3353,
 "ĠNumber": 3354,
 "Sh": 3355,
 "udd": 3356,
 "eff": 3357,
 "Se": 3358,
 "Ġmag": 3359,
 "ald": 3360,
 "icy": 3361,
 "Ġactivity": 3362,
 "Ġnature": 3363,
 "Ġclimate": 3364,
 "Ġsymbol": 3365,
 "Ġdire": 3366,
 "oll": 3367,
 "ining": 3368,
 "type": 3369,
 "Ġusers": 3370,
 "Ġrecent": 3371,
 "aving": 3372,
 "Ġtelevision": 3373,
 "arden": 3374,
 "tters": 3375,
 "ford": 3376,
 "Ġtaking": 3377,
 "Ġsubt": 3378,
 "Ġconsist": 3379,
 "Ġpressure": 3380,
 "ĠWilli": 3381,
 "aged": 3382,
 "minist": 3383,
 "ĠDet": 3384,
 "apter": 3385,
 "Ġensure": 3386,
 "Ġshape": 3387,
 "resh": 3388,
 "const": 3389,
 "ĠInter": 3390,
 "ĠInternational": 3391,
 "ĠâĪ": 3392,
 "Ġsil": 3393,
 "Ġparents": 3394,
 "aul": 3395,
 "uit": 3396,
 "CT": 3397,
 "hesis": 3398,
 "ĠTra": 3399,
 "ands": 3400,
 "ĠFrom": 3401,
 "ĠGiven": 3402,
 "Ġmarket": 3403,
 "Ġsometimes": 3404,
 "Ġbird": 3405,
 "Ġconduct": 3406,
 "Ġessential": 3407,
 "None": 3408,
 "Ġdam": 3409,
 "oth": 3410,
 "Ġsn": 3411,
 "ened": 3412,
 "Ġactually": 3413,
 "ĠJSON": 3414,
 "Ġupon": 3415,
 "Given": 3416,
 "hol": 3417,
 "Ġast": 3418,
 "Ġ\\$": 3419,
 "Ġinternational": 3420,
 "hest": 3421,
 "ington": 3422,
 "ios": 3423,
 "Ġ2011": 3424,
 "Ġforms": 3425,
 "Ġoperating": 3426,
 "Ġerror": 3427,
 "Ġidentify": 3428,
 "56": 3429,
 "round": 3430,
 "****": 3431,
 "iol": 3432,
 "Ġ!": 3433,
 "Ġtreatment": 3434,
 "Ġfish": 3435,
 "acci": 3436,
 "avy": 3437,
 "Ġstudies": 3438,
 "km": 3439,
 "ĠScience": 3440,
 "ĠNor": 3441,
 "sing": 3442,
 "Ġmachine": 3443,
 "Ã¤": 3444,
 "ĠSun": 3445,
 "ĠHealth": 3446,
 "=\"": 3447,
 "Design": 3448,
 "Ġbound": 3449,
 "Ġcoordin": 3450,
 "Ġjo": 3451,
 "ibon": 3452,
 "ĠChar": 3453,
 "met": 3454,
 "ĠTurkey": 3455,
 "ĠRet": 3456,
 "Ġeyes": 3457,
 "Ġsense": 3458,
 "leep": 3459,
 "ĠSte": 3460,
 "Ġpredict": 3461,
 "valid": 3462,
 "Ġbehavior": 3463,
 "Ġgir": 3464,
 "Ġreceived": 3465,
 "iber": 3466,
 "anks": 3467,
 "Ġplot": 3468,
 "Ġhowever": 3469,
 "By": 3470,
 "Ġrepl": 3471,
 "Ġapples": 3472,
 "ibonacci": 3473,
 "rt": 3474,
 "arian": 3475,
 "Ġ80": 3476,
 "Ġflu": 3477,
 "29": 3478,
 "37": 3479,
 "Ġ2005": 3480,
 "autiful": 3481,
 "Ġestim": 3482,
 "Ġparticip": 3483,
 "Ġachieve": 3484,
 "ĠPost": 3485,
 "Ġforest": 3486,
 "Ġheight": 3487,
 "Ġcho": 3488,
 "Ġadult": 3489,
 "Ġfounded": 3490,
 "mar": 3491,
 "ested": 3492,
 "ĠNode": 3493,
 "www": 3494,
 "model": 3495,
 "Ġu": 3496,
 "Ġincluded": 3497,
 "Ġemail": 3498,
 "Ġalmost": 3499,
 "cular": 3500,
 "Ġcapt": 3501,
 "arily": 3502,
 "Ġresponses": 3503,
 "Ġdescribe": 3504,
 "index": 3505,
 "Ġmother": 3506,
 "ellow": 3507,
 "Ġinside": 3508,
 "One": 3509,
 "Ġmagn": 3510,
 "ĠHelp": 3511,
 "ees": 3512,
 "Ġcross": 3513,
 "Ġgot": 3514,
 "ĠLeague": 3515,
 "cor": 3516,
 "atio": 3517,
 "FORMAT": 3518,
 "ĠOther": 3519,
 "Ġsold": 3520,
 "Ġscientific": 3521,
 "38": 3522,
 "rap": 3523,
 "ĠLondon": 3524,
 "ensity": 3525,
 "Ġcollect": 3526,
 "ĠGermany": 3527,
 "ĠAir": 3528,
 "Ġprofessional": 3529,
 "https": 3530,
 "Ġvariety": 3531,
 "Ġstar": 3532,
 "ĠPlease": 3533,
 "Ġoptions": 3534,
 "ners": 3535,
 "ensive": 3536,
 "bl": 3537,
 "ĠData": 3538,
 "Ġyet": 3539,
 "Ġrepresented": 3540,
 "Ġcat": 3541,
 "ĠMus": 3542,
 "Ġhor": 3543,
 "Ġlooking": 3544,
 "Ġinvolves": 3545,
 "Ġfarm": 3546,
 "Ġgain": 3547,
 "Ġste": 3548,
 "ĠGl": 3549,
 "Ġneighb": 3550,
 "Ġissues": 3551,
 "78": 3552,
 "uals": 3553,
 "ĠAg": 3554,
 "ags": 3555,
 "Ġsides": 3556,
 "Ġwhole": 3557,
 "Ġpict": 3558,
 "Ġquality": 3559,
 "selves": 3560,
 "sv": 3561,
 "Ġthing": 3562,
 "Ġcompos": 3563,
 "Ġgradu": 3564,
 "Ġarchitect": 3565,
 "pass": 3566,
 "pite": 3567,
 "Ġ2013": 3568,
 "LAIN": 3569,
 "tes": 3570,
 "Ġfail": 3571,
 "field": 3572,
 "ĠMod": 3573,
 "ĠChina": 3574,
 "ibility": 3575,
 "Ġpersonal": 3576,
 "IC": 3577,
 "IT": 3578,
 "find": 3579,
 "items": 3580,
 "ĠSan": 3581,
 "ĠGener": 3582,
 "Ġconsists": 3583,
 "ension": 3584,
 "LAINFORMAT": 3585,
 "Ġpython": 3586,
 "Ġapproximately": 3587,
 "ĠTest": 3588,
 "Ġexpected": 3589,
 "ternet": 3590,
 "cos": 3591,
 "Ã§": 3592,
 "Ġbill": 3593,
 "Ġshare": 3594,
 "Ġsimply": 3595,
 "Ġdoesn": 3596,
 "Ġmechan": 3597,
 "70": 3598,
 "Ġhous": 3599,
 "Ġassertions": 3600,
 "ĠHol": 3601,
 "rome": 3602,
 "ĠÃĹ": 3603,
 "LE": 3604,
 "Ġclose": 3605,
 "Ġmedic": 3606,
 "ĠHistory": 3607,
 "Ġkil": 3608,
 "ÃŃ": 3609,
 "Ġwide": 3610,
 "Ġlibrary": 3611,
 "Ġexactly": 3612,
 ".)": 3613,
 "itch": 3614,
 "undred": 3615,
 "ĠPhil": 3616,
 "Ġlat": 3617,
 "avor": 3618,
 "Ġtransport": 3619,
 "Ġbring": 3620,
 "cean": 3621,
 "que": 3622,
 "rie": 3623,
 "Ġdefault": 3624,
 "Ġconcern": 3625,
 "Generate": 3626,
 "Implement": 3627,
 "Ġhost": 3628,
 "Ġcenter": 3629,
 "Ġcommonly": 3630,
 "Ġtrees": 3631,
 "ĠMc": 3632,
 "Ġsomeone": 3633,
 "lection": 3634,
 "omm": 3635,
 "Ġstop": 3636,
 "istry": 3637,
 "ords": 3638,
 "Ġhol": 3639,
 "ĠSu": 3640,
 "Ġ{'": 3641,
 "lean": 3642,
 "Ġearth": 3643,
 "Ġvector": 3644,
 "ðĿĳ": 3645,
 "asons": 3646,
 "rong": 3647,
 "active": 3648,
 "aches": 3649,
 "Ġchoose": 3650,
 "__(": 3651,
 "plication": 3652,
 "known": 3653,
 "Ġinj": 3654,
 "ĠAre": 3655,
 "Ġdisplay": 3656,
 "raw": 3657,
 "ĠLab": 3658,
 "iverse": 3659,
 "Ġparameters": 3660,
 "Ġbal": 3661,
 "ĠJapanese": 3662,
 "Ġ['": 3663,
 "Ġlinear": 3664,
 "Ġprop": 3665,
 "Ġfamous": 3666,
 "Ġappropri": 3667,
 "Ġrefers": 3668,
 "ĠId": 3669,
 "Ġplaying": 3670,
 "ĠList": 3671,
 "Ġtrack": 3672,
 "uous": 3673,
 "Ġdictionaries": 3674,
 "ML": 3675,
 "ĠHouse": 3676,
 "Ġvariables": 3677,
 "Ġexerc": 3678,
 "izes": 3679,
 "39": 3680,
 "ien": 3681,
 "Ġeast": 3682,
 "Ġ2004": 3683,
 "Ġcentral": 3684,
 "Ġ()": 3685,
 "Ġdev": 3686,
 "ĠEast": 3687,
 "values": 3688,
 "Ġden": 3689,
 "ims": 3690,
 "ĠFind": 3691,
 "Ġattempt": 3692,
 "Ġscientists": 3693,
 "55": 3694,
 "ĠSm": 3695,
 "Ġrelig": 3696,
 "Ġrunning": 3697,
 "board": 3698,
 "ĠSub": 3699,
 "Ġfactor": 3700,
 "Ġhtt": 3701,
 "ĠMich": 3702,
 "Ġsea": 3703,
 "________": 3704,
 "rab": 3705,
 "Ġlocation": 3706,
 "Ġdescribed": 3707,
 "ael": 3708,
 "ÄŁ": 3709,
 "ĠLat": 3710,
 "ĠGod": 3711,
 "Ġleaves": 3712,
 "Ġconstruct": 3713,
 "ptoms": 3714,
 "lin": 3715,
 "Ġclear": 3716,
 "Ġeat": 3717,
 "unction": 3718,
 "edia": 3719,
 "Ġwood": 3720,
 "oute": 3721,
 "rote": 3722,
 "eration": 3723,
 "ivia": 3724,
 "atives": 3725,
 "ĠGreat": 3726,
 "Ġdownload": 3727,
 "ĠClass": 3728,
 "Ġmilitary": 3729,
 "Ġfem": 3730,
 "ĠBas": 3731,
 "Ġclaim": 3732,
 "Ġfeature": 3733,
 "room": 3734,
 "Ġeval": 3735,
 "ĠBel": 3736,
 "cont": 3737,
 "Ġcreating": 3738,
 "ronic": 3739,
 "Ġvolume": 3740,
 "'ve": 3741,
 "ION": 3742,
 "iate": 3743,
 "Ġseem": 3744,
 "OS": 3745,
 "Ġthous": 3746,
 "ĠBr": 3747,
 "Ġmedical": 3748,
 "oes": 3749,
 "Ġmiddle": 3750,
 "ĠSpe": 3751,
 "Ġcoast": 3752,
 "Ġconcepts": 3753,
 "ÑĤ": 3754,
 "Ġeffects": 3755,
 "ager": 3756,
 "Ġwent": 3757,
 "Ġcollection": 3758,
 "Ġfrequency": 3759,
 "Ġgives": 3760,
 "ategory": 3761,
 "ffer": 3762,
 "Ð¸": 3763,
 "Ġreduce": 3764,
 "Ġsection": 3765,
 "nection": 3766,
 "Ġremov": 3767,
 "Ġregard": 3768,
 "ĠDevelop": 3769,
 "Ġrules": 3770,
 "ufact": 3771,
 "Ġsample": 3772,
 "Ġsplit": 3773,
 "Ġfast": 3774,
 "strings": 3775,
 "nes": 3776,
 "ĠÎ": 3777,
 "Ġwarm": 3778,
 "NA": 3779,
 "Ġassign": 3780,
 "Ġskin": 3781,
 "See": 3782,
 "Ġindustry": 3783,
 "fit": 3784,
 "orge": 3785,
 "Ġloop": 3786,
 "ĠGreek": 3787,
 "fl": 3788,
 "Ġwalk": 3789,
 "ĠAfrica": 3790,
 "Ġcomprehension": 3791,
 "Ġfurther": 3792,
 "ĠCur": 3793,
 "Ġotherwise": 3794,
 "Ġwa": 3795,
 "Ġdu": 3796,
 "Ġgold": 3797,
 "Ġrather": 3798,
 "Ġtim": 3799,
 "ĠCons": 3800,
 "Ġ2000": 3801,
 "Ġ29": 3802,
 "Ġbeginning": 3803,
 "book": 3804,
 "ĠDiv": 3805,
 "Ġspread": 3806,
 "Ġ2009": 3807,
 "equ": 3808,
 "ĠBro": 3809,
 "ĠEduc": 3810,
 "Ġheat": 3811,
 "encies": 3812,
 "Ġeconomic": 3813,
 "Ġprimary": 3814,
 "Ġclean": 3815,
 "Ġriver": 3816,
 "Ġprinci": 3817,
 "plies": 3818,
 "ĠInt": 3819,
 "ieved": 3820,
 "Ġcapac": 3821,
 "Ġtraditional": 3822,
 "Ġcauses": 3823,
 "Ġapplications": 3824,
 "At": 3825,
 "Let": 3826,
 "cel": 3827,
 "Ġmicro": 3828,
 "ĠProblem": 3829,
 "66": 3830,
 "Ġ{}": 3831,
 "Ġchoice": 3832,
 "ube": 3833,
 "Ġdivide": 3834,
 "ĠRepublic": 3835,
 "Ġface": 3836,
 "oday": 3837,
 "First": 3838,
 "List": 3839,
 "Ġnut": 3840,
 "Ġenj": 3841,
 "Ġworked": 3842,
 "Ġetc": 3843,
 "ED": 3844,
 "Ġ2008": 3845,
 "ception": 3846,
 "ĠNot": 3847,
 "Ġsmaller": 3848,
 "Ġschools": 3849,
 "88": 3850,
 "Ġmountain": 3851,
 "fil": 3852,
 "entence": 3853,
 "ĠStep": 3854,
 "And": 3855,
 "ĠAustralian": 3856,
 "alle": 3857,
 "45": 3858,
 "utive": 3859,
 "Ġpairs": 3860,
 "Ġdouble": 3861,
 "Ġ2007": 3862,
 "Ġaccom": 3863,
 "Ġmoved": 3864,
 "Ġeffort": 3865,
 "Ġupp": 3866,
 "amin": 3867,
 "size": 3868,
 "ulated": 3869,
 "ĠEqu": 3870,
 "Ġboard": 3871,
 "iques": 3872,
 "Ġculture": 3873,
 "ĠOlympics": 3874,
 "New": 3875,
 "oub": 3876,
 "osing": 3877,
 "plain": 3878,
 "Ġincreasing": 3879,
 "Ġfigure": 3880,
 "````": 3881,
 "ĠProgram": 3882,
 "Ġemot": 3883,
 "Ġtrying": 3884,
 "Ġemer": 3885,
 "Ġprivate": 3886,
 "Ġfire": 3887,
 "Ġsurv": 3888,
 "oura": 3889,
 "Ġrecomm": 3890,
 "Ġphr": 3891,
 "back": 3892,
 "Ġinstructions": 3893,
 "ĠRec": 3894,
 "Ġhypot": 3895,
 "Ġadditional": 3896,
 "Ġfloat": 3897,
 "âĪ": 3898,
 "rial": 3899,
 "Ġtraining": 3900,
 "05": 3901,
 "Ġslow": 3902,
 "Ġgetting": 3903,
 "roduction": 3904,
 "ĠDepartment": 3905,
 "html": 3906,
 "part": 3907,
 "train": 3908,
 "ederal": 3909,
 "Ġcard": 3910,
 "Ġcivil": 3911,
 "ãģ": 3912,
 "gricult": 3913,
 "Ġmatter": 3914,
 "Ġhelps": 3915,
 "Ġchalleng": 3916,
 "random": 3917,
 "Ġoperation": 3918,
 "Ġreasoning": 3919,
 "ours": 3920,
 "hib": 3921,
 "Ġsens": 3922,
 "Ġcand": 3923,
 "Ġmom": 3924,
 "oration": 3925,
 "ulate": 3926,
 "cles": 3927,
 "inese": 3928,
 "Ġmovement": 3929,
 "Ġcele": 3930,
 "Res": 3931,
 "Ġlanguages": 3932,
 "cil": 3933,
 "Ġfru": 3934,
 "Ġhundred": 3935,
 "Ġradio": 3936,
 "Ġcaused": 3937,
 "But": 3938,
 "ĠSch": 3939,
 "Ġdyn": 3940,
 "exic": 3941,
 "Ġplayers": 3942,
 "Ġrequests": 3943,
 "Ġdistribution": 3944,
 "ĠMost": 3945,
 "ocks": 3946,
 "ucle": 3947,
 "Ġerr": 3948,
 "Ġoriginally": 3949,
 "Ġletters": 3950,
 "Ġinstance": 3951,
 "Pr": 3952,
 "Ġhealthy": 3953,
 "ĠCenter": 3954,
 "format": 3955,
 "Ġzero": 3956,
 "Ġmap": 3957,
 "Ġdecl": 3958,
 "Ġefficient": 3959,
 "vant": 3960,
 "ĠRed": 3961,
 "ĠAfrican": 3962,
 "Ġgenerally": 3963,
 "Ġmemory": 3964,
 "Ġdivision": 3965,
 "Ġbrother": 3966,
 "xy": 3967,
 "Ġanimal": 3968,
 "Ġstri": 3969,
 "ĠDi": 3970,
 "eful": 3971,
 "Ġstarting": 3972,
 "Ġproperty": 3973,
 "ocal": 3974,
 "Ġphil": 3975,
 "Ġrecurs": 3976,
 ")]": 3977,
 "rical": 3978,
 "yd": 3979,
 "Ġten": 3980,
 "Ġpages": 3981,
 "Ġservices": 3982,
 "Ġdetect": 3983,
 "reet": 3984,
 "ening": 3985,
 "ici": 3986,
 "ĠTown": 3987,
 "ĠLin": 3988,
 "CC": 3989,
 "uild": 3990,
 "aling": 3991,
 "Ġequations": 3992,
 "Ġdegree": 3993,
 "ha": 3994,
 "Early": 3995,
 "sin": 3996,
 "Ġrect": 3997,
 "ĠPort": 3998,
 "ĠURL": 3999,
 "Ġdivis": 4000,
 "Ġpsych": 4001,
 "ategor": 4002,
 "Ġinstead": 4003,
 "Answer": 4004,
 "Ġfields": 4005,
 "Ġtowards": 4006,
 "Ġelif": 4007,
 "yp": 4008,
 "Ġlost": 4009,
 "anger": 4010,
 "Ġnews": 4011,
 "Ġlonger": 4012,
 "ĠWilliam": 4013,
 "Ġappropriate": 4014,
 "RO": 4015,
 "Ġfre": 4016,
 "omial": 4017,
 "Is": 4018,
 "ying": 4019,
 "Ġshown": 4020,
 "Ġaud": 4021,
 "ĠQue": 4022,
 "ĠFrance": 4023,
 "ĠLear": 4024,
 ")^": 4025,
 "lst": 4026,
 "rest": 4027,
 "roduct": 4028,
 "ĠProvide": 4029,
 "Ġkids": 4030,
 "Ġsets": 4031,
 "nums": 4032,
 "Can": 4033,
 "diction": 4034,
 "ĠChristian": 4035,
 "SE": 4036,
 "Ġwrote": 4037,
 "Ġdimens": 4038,
 "ĠFore": 4039,
 "ĠOb": 4040,
 "ĠOutput": 4041,
 "ont": 4042,
 "rag": 4043,
 "Ġscore": 4044,
 "gets": 4045,
 "Ġ2017": 4046,
 "ĠResearch": 4047,
 "].": 4048,
 "ris": 4049,
 "Ġspaces": 4050,
 "Ġhighest": 4051,
 "Ġdict": 4052,
 "unch": 4053,
 "ĠBC": 4054,
 "Ġax": 4055,
 "bert": 4056,
 "ĠUnion": 4057,
 "lar": 4058,
 "ampions": 4059,
 "Ġvisit": 4060,
 "ĠDavid": 4061,
 "can": 4062,
 "Ġhot": 4063,
 "Ġmanufact": 4064,
 "Ġrepresentation": 4065,
 "Ġsitu": 4066,
 "ĠInstitute": 4067,
 "case": 4068,
 "ĠGra": 4069,
 "Ġsup": 4070,
 "reng": 4071,
 "Ġblock": 4072,
 "Ġtransform": 4073,
 "Ġtypically": 4074,
 "Ġquite": 4075,
 "asket": 4076,
 "48": 4077,
 "cip": 4078,
 "rew": 4079,
 "ĠHT": 4080,
 "Ġproduces": 4081,
 "RE": 4082,
 "Ġice": 4083,
 "omb": 4084,
 "ĠÂłĠÂł": 4085,
 "nd": 4086,
 "amic": 4087,
 "Ġmanagement": 4088,
 "ĠAnswer": 4089,
 "Ġobtain": 4090,
 "Ġ2015": 4091,
 "venue": 4092,
 "ĠBlack": 4093,
 "erg": 4094,
 "Ġsem": 4095,
 "Ġwrong": 4096,
 "Ġbran": 4097,
 "uries": 4098,
 "Ġdigits": 4099,
 "Ġcollege": 4100,
 "curity": 4101,
 "Ġtas": 4102,
 "Ġcm": 4103,
 "Ġcars": 4104,
 "0000": 4105,
 "Ġ2003": 4106,
 "ĠExp": 4107,
 "men": 4108,
 "Ġfat": 4109,
 "plements": 4110,
 "Ġkm": 4111,
 "ĠSpanish": 4112,
 "off": 4113,
 "Ġaspect": 4114,
 "Ġdirection": 4115,
 "ĠTime": 4116,
 "ĠLaw": 4117,
 "aker": 4118,
 "node": 4119,
 "Ø§": 4120,
 "199": 4121,
 "Ġsymptoms": 4122,
 "ĠReturn": 4123,
 "ding": 4124,
 "js": 4125,
 "dig": 4126,
 "eks": 4127,
 "ĠWrite": 4128,
 "Ġadded": 4129,
 "Ġoffice": 4130,
 "ashington": 4131,
 "include": 4132,
 "Ġaltern": 4133,
 "Ġmedia": 4134,
 "ĠTex": 4135,
 "overs": 4136,
 "Ġdirectly": 4137,
 "uge": 4138,
 "Ġpal": 4139,
 "Ġrights": 4140,
 "Ġasked": 4141,
 "Script": 4142,
 "ĠPresident": 4143,
 "Before": 4144,
 "ought": 4145,
 "Ġdark": 4146,
 "start": 4147,
 "semb": 4148,
 "Ġsports": 4149,
 "Ġexamples": 4150,
 "Ġmultiply": 4151,
 "Ġbact": 4152,
 "ago": 4153,
 "ĠCanadian": 4154,
 "Ġveh": 4155,
 "ĠAssoci": 4156,
 "ĠParty": 4157,
 "ech": 4158,
 "Ġgarden": 4159,
 "Ġinvolved": 4160,
 "Ġ!=": 4161,
 "Ġchecks": 4162,
 "Ġcomponents": 4163,
 "False": 4164,
 "Ġtax": 4165,
 "Ġprem": 4166,
 "escription": 4167,
 "Ġiterate": 4168,
 "Ġwall": 4169,
 "amples": 4170,
 "ourney": 4171,
 "Ġreach": 4172,
 "ĠMexic": 4173,
 "Ġlarger": 4174,
 "instance": 4175,
 "Ġ?": 4176,
 "Ġsociety": 4177,
 "Ġharm": 4178,
 "Ġteacher": 4179,
 "Ġwild": 4180,
 "oding": 4181,
 "QL": 4182,
 "Ġcru": 4183,
 "External": 4184,
 "dat": 4185,
 "enge": 4186,
 "ingu": 4187,
 "Ġ500": 4188,
 "obj": 4189,
 "Ġsurround": 4190,
 "rought": 4191,
 "Ġautom": 4192,
 "Ġmention": 4193,
 "ĠJew": 4194,
 "Ġ36": 4195,
 "Ġtre": 4196,
 "ii": 4197,
 "Ġ<=": 4198,
 "Ġpurpose": 4199,
 "oe": 4200,
 "Ð½": 4201,
 "Ġcast": 4202,
 "Ġthemselves": 4203,
 "Ġdistinct": 4204,
 "Ġhistorical": 4205,
 "31": 4206,
 "Ġop": 4207,
 "Ġopportun": 4208,
 "olic": 4209,
 "Ġlongest": 4210,
 "df": 4211,
 "atively": 4212,
 "Ġbab": 4213,
 "Ġbeg": 4214,
 "ellig": 4215,
 "ĠYes": 4216,
 "Ġdoing": 4217,
 "Ġmunicipality": 4218,
 "Ġfiles": 4219,
 "iers": 4220,
 "Ġ2016": 4221,
 "code": 4222,
 "Ġsleep": 4223,
 "Ġplease": 4224,
 "ĠID": 4225,
 "\"]": 4226,
 "No": 4227,
 "Ġfront": 4228,
 "user": 4229,
 "ĠWestern": 4230,
 "Ġcred": 4231,
 "Ġdivided": 4232,
 "77": 4233,
 "Ġsources": 4234,
 "Ġisland": 4235,
 "Ġ90": 4236,
 "Ġframe": 4237,
 "ĠDuring": 4238,
 "Ġdefine": 4239,
 "HE": 4240,
 "amer": 4241,
 "Ġangle": 4242,
 "bb": 4243,
 "zer": 4244,
 "Ġimages": 4245,
 "Ġsentiment": 4246,
 "Ġtechniques": 4247,
 "net": 4248,
 "Ġ2014": 4249,
 "Ġindividuals": 4250,
 "ville": 4251,
 "oolean": 4252,
 "Ġdetails": 4253,
 "Ġincreased": 4254,
 "Ġissue": 4255,
 "nov": 4256,
 "anc": 4257,
 "estions": 4258,
 "ĠNet": 4259,
 "Ġodd": 4260,
 "ĠNum": 4261,
 "Ġremember": 4262,
 "Ġsimpl": 4263,
 "44": 4264,
 "erve": 4265,
 "Ġking": 4266,
 "do": 4267,
 "Ġfit": 4268,
 "ĠMary": 4269,
 "Ġsex": 4270,
 "anges": 4271,
 "Ġplanet": 4272,
 "Ġgrowing": 4273,
 "From": 4274,
 "oming": 4275,
 "Ġsentences": 4276,
 "Ġeye": 4277,
 "osis": 4278,
 "Ġcompan": 4279,
 "lim": 4280,
 "rate": 4281,
 "ĠJames": 4282,
 "Ġadj": 4283,
 "Ġtrivia": 4284,
 "ĠConst": 4285,
 "mary": 4286,
 "yr": 4287,
 "Ġcities": 4288,
 "Ġviol": 4289,
 "ander": 4290,
 "Ġpurch": 4291,
 "ĠTotal": 4292,
 "ĠDes": 4293,
 "rian": 4294,
 "Ġjson": 4295,
 "Ġguid": 4296,
 "Ġguide": 4297,
 "Ġload": 4298,
 "aught": 4299,
 "mark": 4300,
 "Ġdied": 4301,
 "Ġparticularly": 4302,
 "alian": 4303,
 "ĠForm": 4304,
 "ĠTexas": 4305,
 "John": 4306,
 "inations": 4307,
 "ĠAlex": 4308,
 "Ġ32": 4309,
 "Ġfollowed": 4310,
 "Ġpatients": 4311,
 "ĠCentral": 4312,
 "='": 4313,
 "water": 4314,
 "AM": 4315,
 "Ġmoving": 4316,
 "Ġwidely": 4317,
 "ĠTwo": 4318,
 "Ġvia": 4319,
 "Ġtopic": 4320,
 "unct": 4321,
 "ĠChinese": 4322,
 "Ġminimum": 4323,
 "ĠIsland": 4324,
 "Ġenjoy": 4325,
 "Sub": 4326,
 "ĠAPI": 4327,
 "Ġstress": 4328,
 "500": 4329,
 "Acc": 4330,
 "ders": 4331,
 "Ġreverse": 4332,
 "ĠWhy": 4333,
 "à¸": 4334,
 "ouncil": 4335,
 "Ġratio": 4336,
 "indows": 4337,
 "Ġrot": 4338,
 "Ġsolutions": 4339,
 "Ġemb": 4340,
 "ĠWashington": 4341,
 "ĠLine": 4342,
 "Ġgoes": 4343,
 "Ġenvironmental": 4344,
 "Ġlabel": 4345,
 "sec": 4346,
 "rast": 4347,
 "Ġfactory": 4348,
 "ÑĢ": 4349,
 "ala": 4350,
 "standing": 4351,
 "iences": 4352,
 "ĠMany": 4353,
 "Ġalph": 4354,
 "Ġreturned": 4355,
 "Ġlimit": 4356,
 "Ñģ": 4357,
 "Ġweather": 4358,
 "Ġprograms": 4359,
 "ambda": 4360,
 "Ġstreng": 4361,
 "Ġhash": 4362,
 "ev": 4363,
 "Ġbul": 4364,
 "Ġuseful": 4365,
 "</": 4366,
 "Ġoperator": 4367,
 "sqrt": 4368,
 "76": 4369,
 "ĠStat": 4370,
 "Ġrecently": 4371,
 "Ġbelieve": 4372,
 "ĠTechn": 4373,
 "aughter": 4374,
 "Ġdiscovered": 4375,
 "Ġ```": 4376,
 "Ġdemand": 4377,
 "iar": 4378,
 "ĠArch": 4379,
 "Ġsummer": 4380,
 "Ġavoid": 4381,
 "Â°": 4382,
 "ĠDec": 4383,
 "Ġpresident": 4384,
 "Ġremains": 4385,
 "Ġlif": 4386,
 "unk": 4387,
 "ĠBer": 4388,
 "ocr": 4389,
 "Ġimag": 4390,
 "Ġdecimal": 4391,
 "func": 4392,
 "ĠDevelopment": 4393,
 "ĠMore": 4394,
 "matrix": 4395,
 "join": 4396,
 "Ġinches": 4397,
 "ĠRober": 4398,
 "agon": 4399,
 "Ġnation": 4400,
 "ĠFound": 4401,
 "Ġprep": 4402,
 "ildren": 4403,
 "Ġphilos": 4404,
 "Ġ190": 4405,
 "oyal": 4406,
 "liament": 4407,
 "Ġincor": 4408,
 "Ġmissing": 4409,
 "cd": 4410,
 "ĠLa": 4411,
 "Ġadminist": 4412,
 "Ġdeveloping": 4413,
 "Ġinvent": 4414,
 "Ġoptim": 4415,
 "Ġwidth": 4416,
 "Ġpark": 4417,
 "Ġvac": 4418,
 "ĠBay": 4419,
 "berg": 4420,
 "Ġ1990": 4421,
 "Ġprobably": 4422,
 "gra": 4423,
 "ĠDem": 4424,
 "Ã³": 4425,
 "Ġmis": 4426,
 "Ġdemon": 4427,
 "alt": 4428,
 "Ġ2001": 4429,
 "Ġexists": 4430,
 "Ġcit": 4431,
 "Ġalgebra": 4432,
 "Ġsuccinct": 4433,
 "arter": 4434,
 "Ġbott": 4435,
 "Ġeight": 4436,
 "Ġalthough": 4437,
 "Ġparty": 4438,
 "Ġ2002": 4439,
 "Ġbecomes": 4440,
 "PLAINFORMAT": 4441,
 "fix": 4442,
 "Ġseconds": 4443,
 "Ġoil": 4444,
 "Ġnorthern": 4445,
 "Ġjourney": 4446,
 "Ġflat": 4447,
 "ĠScott": 4448,
 "tu": 4449,
 "ĠGet": 4450,
 "Ġimplements": 4451,
 "Ġrain": 4452,
 "Ġcarbon": 4453,
 "Ġglass": 4454,
 "aid": 4455,
 "dated": 4456,
 "ean": 4457,
 "rypt": 4458,
 "ecause": 4459,
 "Ġeasily": 4460,
 "Ġteachers": 4461,
 "pace": 4462,
 "Ġthr": 4463,
 "ĠHome": 4464,
 "Ġevalu": 4465,
 "iling": 4466,
 "ĠType": 4467,
 "ĠVir": 4468,
 "ditionally": 4469,
 "AC": 4470,
 "ceed": 4471,
 "ĠChurch": 4472,
 "Ġreferred": 4473,
 ")):": 4474,
 "down": 4475,
 "pi": 4476,
 "van": 4477,
 "Ġ45": 4478,
 "Ġspent": 4479,
 "Ġremaining": 4480,
 "ĠBra": 4481,
 "rief": 4482,
 "Ġclasses": 4483,
 "ervation": 4484,
 "ĠPat": 4485,
 "Ġseven": 4486,
 "Ġannual": 4487,
 "With": 4488,
 "]]": 4489,
 "antic": 4490,
 "Ġnumpy": 4491,
 "Ġserver": 4492,
 "Ġexplore": 4493,
 "fess": 4494,
 "oul": 4495,
 "ĠSl": 4496,
 "isl": 4497,
 "Ġones": 4498,
 "Ġdigital": 4499,
 "ĠIdent": 4500,
 "ario": 4501,
 "Ġ189": 4502,
 "Ġcomplet": 4503,
 "ya": 4504,
 "state": 4505,
 "Ġeg": 4506,
 "ĠGreen": 4507,
 "Ġresulting": 4508,
 "Ġdiet": 4509,
 "Ġoccurs": 4510,
 "Ġcosts": 4511,
 "==": 4512,
 "Ġseems": 4513,
 "Ġenter": 4514,
 "ĠInstall": 4515,
 "Ġeth": 4516,
 "elcome": 4517,
 "Ġweeks": 4518,
 "ĠOf": 4519,
 "Ġattention": 4520,
 "Ġcontinue": 4521,
 "Ġhyd": 4522,
 "fe": 4523,
 "wide": 4524,
 "learn": 4525,
 "ida": 4526,
 "Ġquery": 4527,
 "ancial": 4528,
 "Ġstars": 4529,
 "Ġartist": 4530,
 "ĠEducation": 4531,
 "After": 4532,
 "pped": 4533,
 "Ġrequires": 4534,
 "Ġoccup": 4535,
 "ĠGovern": 4536,
 "Ġparameter": 4537,
 "Ġir": 4538,
 "Ġcorn": 4539,
 "Ġthreat": 4540,
 "comp": 4541,
 "Ġconstruction": 4542,
 "Ġeffective": 4543,
 "Ġexception": 4544,
 "atur": 4545,
 "args": 4546,
 "Ġvert": 4547,
 "TE": 4548,
 "Ġmale": 4549,
 "lete": 4550,
 "omas": 4551,
 "ifier": 4552,
 "ĠUK": 4553,
 "wood": 4554,
 "Ġperfect": 4555,
 "Ġappears": 4556,
 "Ġideas": 4557,
 "Ġtheore": 4558,
 "ĠCO": 4559,
 "rays": 4560,
 "Ġscale": 4561,
 "function": 4562,
 "Ġsafety": 4563,
 "ĠSetting": 4564,
 "Ġcir": 4565,
 "Ġwoman": 4566,
 "ums": 4567,
 "Ġrule": 4568,
 "Ġpassed": 4569,
 "Ġmathematics": 4570,
 "Ġpiece": 4571,
 "writ": 4572,
 "Ġmole": 4573,
 "ĠMor": 4574,
 "ĠYear": 4575,
 "Ġspir": 4576,
 "amental": 4577,
 "Ġ$$\\": 4578,
 "Ġcritical": 4579,
 "ĠMal": 4580,
 "ĠMark": 4581,
 "Ġhands": 4582,
 "Ġforces": 4583,
 "ockey": 4584,
 "Ġsuccessful": 4585,
 "ĠKingdom": 4586,
 "ĠSam": 4587,
 "Ġdevice": 4588,
 "Ġ35": 4589,
 "Ph": 4590,
 "isf": 4591,
 "ĠItalian": 4592,
 "Ġserious": 4593,
 "Ġ1980": 4594,
 "ret": 4595,
 "used": 4596,
 "Ġstarts": 4597,
 "ĠGeorge": 4598,
 "item": 4599,
 "ĠLou": 4600,
 "Ġgrand": 4601,
 "airs": 4602,
 "Ġinsp": 4603,
 "Ġstructures": 4604,
 "Ð¾Ð": 4605,
 "68": 4606,
 "à®": 4607,
 "hell": 4608,
 "Ġfavor": 4609,
 "Ġdevices": 4610,
 "ĠDon": 4611,
 "Ġ31": 4612,
 "mercial": 4613,
 "Ġimportance": 4614,
 "Ġextra": 4615,
 "Ġbelong": 4616,
 "Ġhumans": 4617,
 "ĠGeneral": 4618,
 "Ġhouses": 4619,
 "icks": 4620,
 "ishing": 4621,
 "Ġcarry": 4622,
 "Ġrepe": 4623,
 "Ġhighly": 4624,
 "hold": 4625,
 "Ġtensor": 4626,
 "Ġswe": 4627,
 "Ġdry": 4628,
 "astern": 4629,
 "elines": 4630,
 "ĠEmp": 4631,
 "Ġinstr": 4632,
 "Ġdescription": 4633,
 "Ġlatest": 4634,
 "Ġfr": 4635,
 "ĠPass": 4636,
 "ĠJust": 4637,
 "US": 4638,
 "thing": 4639,
 "see": 4640,
 "example": 4641,
 "Ġmodels": 4642,
 "Ġ1999": 4643,
 "Ġcommunication": 4644,
 "Ġdemonstr": 4645,
 "igr": 4646,
 "Ġinterpre": 4647,
 "apping": 4648,
 "Ġeveryone": 4649,
 "ĠCheck": 4650,
 "79": 4651,
 "vention": 4652,
 "Ġhon": 4653,
 "Ġsolar": 4654,
 "spe": 4655,
 "za": 4656,
 "ĠPaul": 4657,
 "ogle": 4658,
 "ulti": 4659,
 "ĠQuestions": 4660,
 "Ġemployees": 4661,
 "uzz": 4662,
 "erate": 4663,
 "ĠApp": 4664,
 "Ġadapt": 4665,
 "Ġinstalled": 4666,
 "Ġcustomer": 4667,
 "Ġassess": 4668,
 "Ġpassword": 4669,
 "Ġpowerful": 4670,
 "Ġvirus": 4671,
 "ĠMac": 4672,
 "Ġacadem": 4673,
 "49": 4674,
 "Ġ;": 4675,
 "Ġtou": 4676,
 "Ġequival": 4677,
 "mosp": 4678,
 "Ġseat": 4679,
 "Ġactive": 4680,
 "ĠGroup": 4681,
 "Ġmathematical": 4682,
 "Ġcelebr": 4683,
 "isc": 4684,
 "oral": 4685,
 "Ġnucle": 4686,
 "ĠTitle": 4687,
 "ĠAM": 4688,
 "anguage": 4689,
 "Ġinsert": 4690,
 "Ġtrib": 4691,
 "idents": 4692,
 "aint": 4693,
 "ologist": 4694,
 "Ġreflect": 4695,
 "Ġdem": 4696,
 "ĠRich": 4697,
 "Ġattack": 4698,
 "Ġrecorded": 4699,
 "Ġlies": 4700,
 "Ġcategor": 4701,
 "ulations": 4702,
 "Ġestablish": 4703,
 "ij": 4704,
 "ails": 4705,
 "Ġassum": 4706,
 "Ġengineering": 4707,
 "Total": 4708,
 "life": 4709,
 "Ġfight": 4710,
 "Ġinvestig": 4711,
 "ĠMathemat": 4712,
 "All": 4713,
 "alities": 4714,
 "style": 4715,
 "izer": 4716,
 "ĠAnt": 4717,
 "gypt": 4718,
 "Ġthinking": 4719,
 "Ġrecords": 4720,
 "Ġkilomet": 4721,
 "itation": 4722,
 "ifically": 4723,
 "ĠFact": 4724,
 "Ġjournal": 4725,
 "Ġprec": 4726,
 "ĠAlthough": 4727,
 "ĠPhys": 4728,
 "Ġwonder": 4729,
 ")$": 4730,
 "ancy": 4731,
 "Ġchanged": 4732,
 "ĠCalculate": 4733,
 "Ġbenefits": 4734,
 "onic": 4735,
 "imin": 4736,
 "Ġ`'": 4737,
 "Ġoverall": 4738,
 "Ġtuples": 4739,
 "Ġjoined": 4740,
 "aset": 4741,
 "uration": 4742,
 "Ġdirectory": 4743,
 "ĠĠĠĠĠĠ": 4744,
 "istan": 4745,
 "ache": 4746,
 "ĠOff": 4747,
 "late": 4748,
 "ĠCour": 4749,
 "Ġwaste": 4750,
 "hips": 4751,
 "mitted": 4752,
 "Ġindependent": 4753,
 "Ġwriter": 4754,
 "Ġinstallation": 4755,
 "Ġprior": 4756,
 "Post": 4757,
 "Ġfeed": 4758,
 "ifying": 4759,
 "burg": 4760,
 "Ġcos": 4761,
 "Ġstage": 4762,
 "ĠWater": 4763,
 "ints": 4764,
 "ki": 4765,
 "iny": 4766,
 "Ġscreen": 4767,
 "Ġsoil": 4768,
 "Ġapply": 4769,
 "IV": 4770,
 "oke": 4771,
 "Ġ_": 4772,
 "Ġbad": 4773,
 "omin": 4774,
 "Ġdrink": 4775,
 "annel": 4776,
 "orage": 4777,
 "Ġstay": 4778,
 "ria": 4779,
 "ĠArmy": 4780,
 "Ġsituation": 4781,
 "Ġcapacity": 4782,
 "range": 4783,
 "Ġstudied": 4784,
 "Ġprocesses": 4785,
 "Ġseparate": 4786,
 "Ġ2020": 4787,
 "Ġsetting": 4788,
 "ĠClub": 4789,
 ")=": 4790,
 "Ġhabit": 4791,
 "ollow": 4792,
 "ĠMet": 4793,
 "csv": 4794,
 "Ġded": 4795,
 "change": 4796,
 "Ġconnection": 4797,
 "Ġteaching": 4798,
 "Ġcontact": 4799,
 "Ġfinding": 4800,
 "Ġsett": 4801,
 "Ġrows": 4802,
 "Ġexercise": 4803,
 "UT": 4804,
 "Ġsaw": 4805,
 "Ġwat": 4806,
 "Ġearn": 4807,
 "ĠMil": 4808,
 "ĠInte": 4809,
 "Ġproviding": 4810,
 "ospital": 4811,
 "Ġear": 4812,
 "Ġcommit": 4813,
 "Ġgrade": 4814,
 "keys": 4815,
 "ĠLatin": 4816,
 ">>": 4817,
 "Ġinh": 4818,
 "Ġsafe": 4819,
 "ĠAssociation": 4820,
 "pat": 4821,
 "Ġmental": 4822,
 "apers": 4823,
 "Ġparse": 4824,
 "ĠAtl": 4825,
 "Americ": 4826,
 "mission": 4827,
 "title": 4828,
 "omy": 4829,
 "ĠEv": 4830,
 "Ġlogic": 4831,
 "Ġbasket": 4832,
 "Ġstra": 4833,
 "abilities": 4834,
 "Ġvisual": 4835,
 "iciency": 4836,
 "ologies": 4837,
 "Ġ2019": 4838,
 "isms": 4839,
 "urban": 4840,
 "Out": 4841,
 "ĠÏ": 4842,
 "Ġdecision": 4843,
 "Ġcombination": 4844,
 "Ġreported": 4845,
 "ĠTim": 4846,
 "Ġ`[": 4847,
 "Ġnewsp": 4848,
 "Ġconcent": 4849,
 "Ġnearly": 4850,
 "Ġphysics": 4851,
 "Ġcircle": 4852,
 "root": 4853,
 "Ġ(\"": 4854,
 "Ġtwice": 4855,
 "Ġparent": 4856,
 "85": 4857,
 "flo": 4858,
 "pol": 4859,
 "ĠOpen": 4860,
 "Ġtriangle": 4861,
 "Ġannoun": 4862,
 "Question": 4863,
 "Ġhypothesis": 4864,
 "pid": 4865,
 "Ġnative": 4866,
 "ota": 4867,
 "ĠLake": 4868,
 "Ġdepend": 4869,
 "Ġsch": 4870,
 "agraph": 4871,
 "db": 4872,
 "aten": 4873,
 "Ġfiction": 4874,
 "ĠFoot": 4875,
 "orning": 4876,
 "}{\\": 4877,
 "Ġreve": 4878,
 "Ġpoor": 4879,
 "ĠPal": 4880,
 "Ġship": 4881,
 "Ġpolitician": 4882,
 "pan": 4883,
 "Ġrail": 4884,
 "ĠSecond": 4885,
 "Ġwidgets": 4886,
 "Ġcook": 4887,
 "level": 4888,
 "Ġdiagn": 4889,
 "ĠĠĠĠĠĠĠĠĠĠĠĠĠĠĠĠĠĠĠĠĠĠĠĠ": 4890,
 "Ġexperiment": 4891,
 "Ġintroduced": 4892,
 "Ġestimated": 4893,
 "lor": 4894,
 "Ġsouthern": 4895,
 "ĠWhich": 4896,
 "Ġhimself": 4897,
 "ĠAcadem": 4898,
 "odies": 4899,
 "ocol": 4900,
 "Ġjoin": 4901,
 "ometry": 4902,
 "ĠGuide": 4903,
 "ĠRussian": 4904,
 "Ġful": 4905,
 "ĠTheir": 4906,
 "Ġrelease": 4907,
 "Ġmph": 4908,
 "ĠElect": 4909,
 "Ġinputs": 4910,
 "Ġdescribes": 4911,
 "Ġaward": 4912,
 "Ġburn": 4913,
 "Ġgall": 4914,
 "Ġ300": 4915,
 "object": 4916,
 "Ġ1970": 4917,
 "Ġmel": 4918,
 "ĠSal": 4919,
 "ĠCong": 4920,
 "Ġoption": 4921,
 "ensus": 4922,
 "Ġhit": 4923,
 "Ġisn": 4924,
 "ĠSur": 4925,
 "Ġcompare": 4926,
 "Int": 4927,
 "Ġstatus": 4928,
 "46": 4929,
 "first": 4930,
 "Ġsus": 4931,
 "ĠMiss": 4932,
 "Ġprogress": 4933,
 "ĠEgypt": 4934,
 "Ġshap": 4935,
 "ein": 4936,
 "isions": 4937,
 "Ġtour": 4938,
 "atform": 4939,
 "Ġfif": 4940,
 "Ġdatetime": 4941,
 "((": 4942,
 "Ġroll": 4943,
 "89": 4944,
 "Ġid": 4945,
 "ros": 4946,
 "Ġstories": 4947,
 "ells": 4948,
 "Ġque": 4949,
 "igen": 4950,
 "String": 4951,
 "position": 4952,
 "Ġnav": 4953,
 "Ġplaced": 4954,
 "Ġpercentage": 4955,
 "Ġupper": 4956,
 "AD": 4957,
 "Ġmoment": 4958,
 "arrow": 4959,
 "Ġplays": 4960,
 "Ġelection": 4961,
 "Ġfamilies": 4962,
 "My": 4963,
 "Ġcou": 4964,
 "Ġrob": 4965,
 "long": 4966,
 "Ġtall": 4967,
 "ĠMart": 4968,
 "ĠOh": 4969,
 "Ġconnected": 4970,
 "heast": 4971,
 "ictor": 4972,
 "Ġquickly": 4973,
 "rd": 4974,
 "Ġyes": 4975,
 "ĠMr": 4976,
 "ĠItaly": 4977,
 "Ġsoon": 4978,
 "Ġcolon": 4979,
 "ĠValue": 4980,
 "fort": 4981,
 "gn": 4982,
 "house": 4983,
 "Ġlack": 4984,
 "Ġcold": 4985,
 "Ġedge": 4986,
 "Ġbacteria": 4987,
 "ĠCup": 4988,
 "Ġmatches": 4989,
 "ĠSea": 4990,
 "Ġrespond": 4991,
 "iti": 4992,
 "Ġ2018": 4993,
 "covery": 4994,
 "Ad": 4995,
 "Ġ120": 4996,
 "Ġdecre": 4997,
 "Ġintellig": 4998,
 "ĠAccording": 4999,
 "OL": 5000,
 "ga": 5001,
 "orders": 5002,
 "Ġolder": 5003,
 "Ġadults": 5004,
 "Ġfemale": 5005,
 "ĠOver": 5006,
 "Ġ[\"": 5007,
 "Ġrace": 5008,
 "Ġseparated": 5009,
 "pred": 5010,
 "ĠIN": 5011,
 "Ġmetal": 5012,
 "Ġbirds": 5013,
 "isp": 5014,
 "imeter": 5015,
 "Ġsuffer": 5016,
 "ĠAmericans": 5017,
 "ĠTherefore": 5018,
 "Ġradius": 5019,
 "ira": 5020,
 "Ġtit": 5021,
 "uman": 5022,
 "Ġprot": 5023,
 "Ġ70": 5024,
 "ĠEngine": 5025,
 "];": 5026,
 "ester": 5027,
 "ĠOld": 5028,
 "izations": 5029,
 "Ġliterature": 5030,
 "ĠSummer": 5031,
 "AP": 5032,
 "ĠCath": 5033,
 "ocity": 5034,
 "Ġadvanced": 5035,
 "ny": 5036,
 "à°": 5037,
 "ractions": 5038,
 "Ġgenerated": 5039,
 "Ġdigit": 5040,
 "ĠCarol": 5041,
 "Ge": 5042,
 "Ġeverything": 5043,
 "(-": 5044,
 "ĨĴ": 5045,
 "oted": 5046,
 "Ġwatch": 5047,
 "Ġchurch": 5048,
 "Ġdirector": 5049,
 "Ġattributes": 5050,
 "Ġpatterns": 5051,
 "arlier": 5052,
 "sembly": 5053,
 "ĠSen": 5054,
 "ĠStreet": 5055,
 "Ġspeak": 5056,
 "porary": 5057,
 "Ġfuel": 5058,
 "ĠRem": 5059,
 "ĠEmpire": 5060,
 "67": 5061,
 "Bl": 5062,
 "bor": 5063,
 "Ġhair": 5064,
 "Ġrestaur": 5065,
 "Ġcoordinates": 5066,
 "ĠIr": 5067,
 "ĠMass": 5068,
 "comes": 5069,
 "Ġcommunities": 5070,
 "rugg": 5071,
 "actions": 5072,
 "eet": 5073,
 "estic": 5074,
 "Ġworkers": 5075,
 "ĠAdd": 5076,
 "SS": 5077,
 "rb": 5078,
 "works": 5079,
 "Ġfair": 5080,
 "irm": 5081,
 "term": 5082,
 "Ġchart": 5083,
 "Ġrare": 5084,
 "Ġactual": 5085,
 "Ġoffers": 5086,
 "mathrm": 5087,
 "Col": 5088,
 "Ġspect": 5089,
 "http": 5090,
 "Ġaware": 5091,
 "agram": 5092,
 "Ġmotion": 5093,
 "ping": 5094,
 "Ġimmed": 5095,
 "Ġcolumns": 5096,
 "Ġcovered": 5097,
 "\\$": 5098,
 "ena": 5099,
 "Ġcombined": 5100,
 "Ab": 5101,
 "Dr": 5102,
 "`:": 5103,
 "ĠÃĩ": 5104,
 "Ġdamage": 5105,
 "ĠBen": 5106,
 "ĠBook": 5107,
 "Ġseg": 5108,
 "Ġspring": 5109,
 "Ġprimarily": 5110,
 "ĠPeople": 5111,
 "Ġbillion": 5112,
 "ĠDivision": 5113,
 "Ġmission": 5114,
 "ĠHen": 5115,
 "Ġcompar": 5116,
 "Ġpoll": 5117,
 "Ġtopics": 5118,
 "Ġpd": 5119,
 "Ġpen": 5120,
 "Ġbrought": 5121,
 "adr": 5122,
 "Ġcompil": 5123,
 "ĠVol": 5124,
 "Ġacqu": 5125,
 "Ġdirected": 5126,
 "Ġreplaced": 5127,
 "och": 5128,
 "ibly": 5129,
 "Ġelected": 5130,
 "Ġinteresting": 5131,
 "ename": 5132,
 "Ġwife": 5133,
 "Ġexpressions": 5134,
 "ĠJavaScript": 5135,
 "ston": 5136,
 "Ġsuff": 5137,
 "42": 5138,
 "top": 5139,
 "Ġcool": 5140,
 "Ġbank": 5141,
 "Ġcommercial": 5142,
 "Ġlesson": 5143,
 "tem": 5144,
 "Ġagricult": 5145,
 "Ġleaders": 5146,
 "Ġveget": 5147,
 "Ġbegins": 5148,
 "Ġlived": 5149,
 "Ġvel": 5150,
 "Ġcup": 5151,
 "rapy": 5152,
 "Ġcomment": 5153,
 "ĠRel": 5154,
 "ffee": 5155,
 "ĠFlor": 5156,
 "Ġoppos": 5157,
 "stain": 5158,
 "next": 5159,
 "Ġacid": 5160,
 "cohol": 5161,
 "Ġfinancial": 5162,
 "Ġepis": 5163,
 "Sol": 5164,
 "à¥": 5165,
 "Ġtold": 5166,
 "enty": 5167,
 "Ġjava": 5168,
 "Ġutil": 5169,
 ")/": 5170,
 "unt": 5171,
 "ĠCouncil": 5172,
 "Ġleader": 5173,
 "Ġcultural": 5174,
 "59": 5175,
 "Number": 5176,
 "hi": 5177,
 "itar": 5178,
 "Ġmess": 5179,
 "Ġnodes": 5180,
 "ĠMars": 5181,
 "Input": 5182,
 "Ġoccurren": 5183,
 "Ġprompt": 5184,
 "no": 5185,
 "Ġpoly": 5186,
 "Ġlabor": 5187,
 "Ġlinked": 5188,
 "gl": 5189,
 "Ġcategory": 5190,
 "Ġpan": 5191,
 "Ġcoach": 5192,
 "Ġcharge": 5193,
 "Ġadding": 5194,
 "Ġexpand": 5195,
 "Ġpolicy": 5196,
 "ka": 5197,
 "rand": 5198,
 "itable": 5199,
 "Ġsecret": 5200,
 "2022": 5201,
 "ING": 5202,
 "ĠAN": 5203,
 "ession": 5204,
 "Ġcompute": 5205,
 "Ġsubtract": 5206,
 "correct": 5207,
 "?\"": 5208,
 "enth": 5209,
 "Ġ1000": 5210,
 "iring": 5211,
 "ĠOur": 5212,
 "Ġcolors": 5213,
 "Ġsupply": 5214,
 "Ġdegrees": 5215,
 "Ġequivalent": 5216,
 "54": 5217,
 "inn": 5218,
 "Ġcards": 5219,
 "ailed": 5220,
 "Ġsky": 5221,
 "ĠScot": 5222,
 "pper": 5223,
 "ously": 5224,
 "Ġparagraph": 5225,
 "Ġsinger": 5226,
 "Stud": 5227,
 "Ġreference": 5228,
 "Ġorganization": 5229,
 "yond": 5230,
 "Ġmode": 5231,
 "road": 5232,
 "Ġtrade": 5233,
 "Ġdidn": 5234,
 "Ġur": 5235,
 "inally": 5236,
 "Ġbrief": 5237,
 "Ġnested": 5238,
 "ĠTV": 5239,
 "Ġexpect": 5240,
 "iller": 5241,
 "Ġeducational": 5242,
 "Ġencoura": 5243,
 "ĠCharles": 5244,
 "ĠReview": 5245,
 "Ġgets": 5246,
 "Ġdogs": 5247,
 "Ġfundamental": 5248,
 "Ġconversion": 5249,
 "Ġbalance": 5250,
 "ye": 5251,
 "heet": 5252,
 "Ġcub": 5253,
 "Ġpreviously": 5254,
 "Ġsq": 5255,
 "Ġfilled": 5256,
 "Ġwinter": 5257,
 "Ġpet": 5258,
 "Ġisinstance": 5259,
 "ĠUN": 5260,
 "ossible": 5261,
 "Ġastron": 5262,
 "Bi": 5263,
 "Do": 5264,
 "body": 5265,
 "alph": 5266,
 "opt": 5267,
 "ĠRoyal": 5268,
 "Ġtransfer": 5269,
 "Ġdecor": 5270,
 "Ġruns": 5271,
 "ĠPlan": 5272,
 "arent": 5273,
 "Ġdiseases": 5274,
 "Ġillust": 5275,
 "sorted": 5276,
 "Ġcompanies": 5277,
 "la": 5278,
 "Ġath": 5279,
 "ĠTw": 5280,
 "otic": 5281,
 "ĠMem": 5282,
 "ĠGames": 5283,
 "Ġinters": 5284,
 "Ġteeth": 5285,
 "Ġcompared": 5286,
 "ĠComput": 5287,
 "Ġwave": 5288,
 "Ġdoub": 5289,
 "Ġnumerous": 5290,
 "ado": 5291,
 "Ġatmosp": 5292,
 "Ġresource": 5293,
 "Ġresponsible": 5294,
 "ains": 5295,
 "Ġjoint": 5296,
 "Ġbasis": 5297,
 "Ġbottom": 5298,
 "09": 5299,
 "ĠTom": 5300,
 "olf": 5301,
 "ĠMiddle": 5302,
 "ĠDel": 5303,
 "rip": 5304,
 "ĠVis": 5305,
 "icket": 5306,
 "ĠZe": 5307,
 "Ġinfluence": 5308,
 "Ġdeal": 5309,
 "CH": 5310,
 "OT": 5311,
 "lt": 5312,
 "Ġos": 5313,
 "itu": 5314,
 "ĠArab": 5315,
 "element": 5316,
 "Ġlimited": 5317,
 "ĠTop": 5318,
 "ĠSing": 5319,
 "Ġ(;": 5320,
 "Ġsklearn": 5321,
 "Ġgirls": 5322,
 "div": 5323,
 "sol": 5324,
 "Ġstrugg": 5325,
 "Ġvoc": 5326,
 "Ġvict": 5327,
 "quare": 5328,
 "Ġscen": 5329,
 "Ġcounty": 5330,
 "ĠMichael": 5331,
 "han": 5332,
 "arg": 5333,
 "ĠKe": 5334,
 "Ġpresented": 5335,
 "Ġviews": 5336,
 "58": 5337,
 "ĠWindows": 5338,
 "acing": 5339,
 "Ġchat": 5340,
 "Ġ150": 5341,
 "ĠAsia": 5342,
 "Ġopened": 5343,
 "Ġpicture": 5344,
 "ĠHTML": 5345,
 "Ġaspects": 5346,
 "ĠRobert": 5347,
 "Ġcompletely": 5348,
 "ĠLouis": 5349,
 "flow": 5350,
 "vation": 5351,
 "Ġsen": 5352,
 "Ġmedal": 5353,
 "47": 5354,
 "DF": 5355,
 "aign": 5356,
 "Ġbur": 5357,
 "Ġdead": 5358,
 "Ġsettle": 5359,
 "Ġ1960": 5360,
 "Read": 5361,
 "struct": 5362,
 "ĠPower": 5363,
 "Ġsustain": 5364,
 "Ġbecoming": 5365,
 "Ġexisting": 5366,
 "ds": 5367,
 "Ġurban": 5368,
 "illing": 5369,
 "crete": 5370,
 "Ġpatient": 5371,
 "host": 5372,
 "Ġassume": 5373,
 "ographic": 5374,
 "edy": 5375,
 "ctors": 5376,
 "ĠSign": 5377,
 "output": 5378,
 "xygen": 5379,
 "lines": 5380,
 "vis": 5381,
 "Ġpand": 5382,
 "Ġ1996": 5383,
 "Ġappeared": 5384,
 "Ġtasks": 5385,
 "Ġesc": 5386,
 "Ġfixed": 5387,
 "ĠSk": 5388,
 "ĠRE": 5389,
 "Ġrich": 5390,
 "ooth": 5391,
 "Ġtesting": 5392,
 "Ġsatisf": 5393,
 "Ġprinciples": 5394,
 "!!": 5395,
 "Ġtag": 5396,
 "command": 5397,
 "Cont": 5398,
 "search": 5399,
 "ĠDan": 5400,
 "Ġsecurity": 5401,
 "oma": 5402,
 "urt": 5403,
 "Ġnotes": 5404,
 "Ġcentre": 5405,
 "Ġlaws": 5406,
 "ophy": 5407,
 "American": 5408,
 "ĠØ": 5409,
 "ĠAcademy": 5410,
 "Ġmyth": 5411,
 "Ġthus": 5412,
 "Ġsurpr": 5413,
 "Ġdecided": 5414,
 "Ġmaster": 5415,
 "Ġvary": 5416,
 "Ġsche": 5417,
 "Ġcollab": 5418,
 "Ġ**": 5419,
 "While": 5420,
 "Ġdepth": 5421,
 "Ġwestern": 5422,
 "Ġselected": 5423,
 "abetes": 5424,
 "Ġhttp": 5425,
 "ĠPublic": 5426,
 "Ġproced": 5427,
 "Ġretrie": 5428,
 "Ġjud": 5429,
 "Ġapplied": 5430,
 "Ġprofessor": 5431,
 "dictionary": 5432,
 "Next": 5433,
 "gian": 5434,
 "Ġinform": 5435,
 "Ġhex": 5436,
 "Ġmultiplication": 5437,
 "ĠGeorg": 5438,
 "Ġtend": 5439,
 "ĠMake": 5440,
 "oper": 5441,
 "elled": 5442,
 "Ġstrateg": 5443,
 "Ne": 5444,
 "Name": 5445,
 "Ġphen": 5446,
 "uls": 5447,
 "ada": 5448,
 "Ġfoods": 5449,
 "Ġcopy": 5450,
 "Ġguidelines": 5451,
 "These": 5452,
 "Ġfinds": 5453,
 "Ġreligious": 5454,
 "Ġsites": 5455,
 "ĠSuper": 5456,
 "ĠMexico": 5457,
 "69": 5458,
 "CD": 5459,
 "Not": 5460,
 "Since": 5461,
 "ona": 5462,
 "Ġreasons": 5463,
 "ĠPri": 5464,
 "ĠBi": 5465,
 "ĠExt": 5466,
 "Ġrank": 5467,
 "anging": 5468,
 "Ġdoctor": 5469,
 "Ġ1992": 5470,
 "Ġ1998": 5471,
 "Ġbrown": 5472,
 "Class": 5473,
 "ĠCompany": 5474,
 "Ġcitiz": 5475,
 "Ġdensity": 5476,
 "ĠRad": 5477,
 "obile": 5478,
 "57": 5479,
 "Ġsand": 5480,
 "Ġwit": 5481,
 "Ġmorning": 5482,
 "usion": 5483,
 "ifies": 5484,
 "ĠHall": 5485,
 "ĠName": 5486,
 "Ġteach": 5487,
 "ĠCommon": 5488,
 "inf": 5489,
 "asure": 5490,
 "sect": 5491,
 "ĠWhite": 5492,
 "ĠRev": 5493,
 "Ġfactorial": 5494,
 "Le": 5495,
 "RI": 5496,
 "vest": 5497,
 "Ġanything": 5498,
 "ĠTer": 5499,
 "olit": 5500,
 "ĠGold": 5501,
 "ynomial": 5502,
 "ircraft": 5503,
 "Ġgreatest": 5504,
 "names": 5505,
 "ĠMuse": 5506,
 "ĠFe": 5507,
 "ĠJes": 5508,
 "Ġraised": 5509,
 "Ġmostly": 5510,
 "Ġgrad": 5511,
 "Ġlegal": 5512,
 "ðĿĲ": 5513,
 "Ġinnov": 5514,
 "ĠToday": 5515,
 "ĠCr": 5516,
 "opy": 5517,
 "teen": 5518,
 "Ġperformed": 5519,
 "ĠOlympic": 5520,
 "02": 5521,
 "Find": 5522,
 "haps": 5523,
 "ĠCode": 5524,
 "ĠVictor": 5525,
 "ĠProfess": 5526,
 "Please": 5527,
 "lict": 5528,
 "ystem": 5529,
 "inc": 5530,
 "Ġworth": 5531,
 "ĠChampions": 5532,
 "Ġrapid": 5533,
 "Ġfruit": 5534,
 "AB": 5535,
 "win": 5536,
 "Ġcounter": 5537,
 "Ġboolean": 5538,
 "ĠFunction": 5539,
 "ificial": 5540,
 "Ġphone": 5541,
 "Ġconverted": 5542,
 "Ġmajority": 5543,
 "Ġstrength": 5544,
 "gative": 5545,
 "Ġfederal": 5546,
 "alysis": 5547,
 "Ġgave": 5548,
 "ĠPM": 5549,
 "ĠPoint": 5550,
 "Ġproport": 5551,
 "ĠInitial": 5552,
 "Ġtests": 5553,
 "Ġtravels": 5554,
 "Ġwants": 5555,
 "Ġdanger": 5556,
 "Ġstock": 5557,
 "ĠLiber": 5558,
 "Ġcomposed": 5559,
 "Ġcoll": 5560,
 "Ġprocessing": 5561,
 "utch": 5562,
 "Ġvast": 5563,
 "ĠWil": 5564,
 "ĠFre": 5565,
 "ipment": 5566,
 "password": 5567,
 "PS": 5568,
 "Ġborder": 5569,
 "ĠNov": 5570,
 "Ġpieces": 5571,
 "ĠInstalling": 5572,
 "Ġacademic": 5573,
 "Def": 5574,
 "Ġearlier": 5575,
 "ocket": 5576,
 "Ġprofit": 5577,
 "Ġstraight": 5578,
 "04": 5579,
 "rogen": 5580,
 "Ġeconomy": 5581,
 "Ġchallenges": 5582,
 "Ġmentioned": 5583,
 "06": 5584,
 "iant": 5585,
 "ĠInternet": 5586,
 "Ġnothing": 5587,
 "Ġparalle": 5588,
 "ĠSpace": 5589,
 "ĠStudents": 5590,
 "According": 5591,
 "Ġstatic": 5592,
 "ĠJose": 5593,
 "Ġsave": 5594,
 "Ġmeasures": 5595,
 "Ġbaby": 5596,
 "ĠFootball": 5597,
 "Be": 5598,
 "FL": 5599,
 "wer": 5600,
 "ĠBill": 5601,
 "Ġsubsequ": 5602,
 "ĠParis": 5603,
 "$\\": 5604,
 "Ġdaughter": 5605,
 "Ġdataset": 5606,
 "product": 5607,
 "inition": 5608,
 "indrome": 5609,
 "Ġ2021": 5610,
 "Ġdesired": 5611,
 "Ġbuy": 5612,
 "Why": 5613,
 "ĠIdentify": 5614,
 "Ġschol": 5615,
 "08": 5616,
 "Te": 5617,
 "post": 5618,
 "well": 5619,
 "Ġrh": 5620,
 "ĠKore": 5621,
 "ĠColumb": 5622,
 "arp": 5623,
 "Ġbright": 5624,
 "ĠMain": 5625,
 "ĠHam": 5626,
 "Ġrout": 5627,
 "Ġ1997": 5628,
 "Ġwanted": 5629,
 "reland": 5630,
 "Ġrise": 5631,
 "Ġsongs": 5632,
 "Ġaccepts": 5633,
 "Ġdrawing": 5634,
 "Val": 5635,
 "aled": 5636,
 "Ġcontroll": 5637,
 "Ġflowers": 5638,
 "Ġhappens": 5639,
 "Ġcrucial": 5640,
 "Ġsend": 5641,
 "Ġbuildings": 5642,
 "Ġreceive": 5643,
 "84": 5644,
 "DA": 5645,
 "Ġstack": 5646,
 "phone": 5647,
 "Ġbelieved": 5648,
 "Ġcharacteristics": 5649,
 "den": 5650,
 "imb": 5651,
 "ests": 5652,
 "ĠBecause": 5653,
 "ĠEr": 5654,
 "ĠNorthern": 5655,
 "Ġshop": 5656,
 "Ġliqu": 5657,
 "cis": 5658,
 "Ġult": 5659,
 "Ġdance": 5660,
 "Ġgiving": 5661,
 "ownload": 5662,
 "Ġcoffee": 5663,
 "Ġdifferences": 5664,
 "band": 5665,
 "rael": 5666,
 "ĠRub": 5667,
 "ĠStand": 5668,
 "Ġcreates": 5669,
 "Ġsolid": 5670,
 "Ġsuggests": 5671,
 "}$$": 5672,
 "ulum": 5673,
 "Ġinfection": 5674,
 "Ġincreases": 5675,
 "Ġprojects": 5676,
 "Ġanalyze": 5677,
 "ĠVirgin": 5678,
 "CO": 5679,
 "Ġcovers": 5680,
 "Ġrecommend": 5681,
 "Ġfle": 5682,
 "roy": 5683,
 "Ġdecades": 5684,
 "Ġsynt": 5685,
 "ĠCommun": 5686,
 "more": 5687,
 "onym": 5688,
 "Ġfresh": 5689,
 "Ġlooks": 5690,
 "Ġcoming": 5691,
 "ĠUs": 5692,
 "Ġdepending": 5693,
 "Ġcontinuous": 5694,
 "ĠCatholic": 5695,
 "ĠFlorida": 5696,
 "Ġà¤": 5697,
 "ĠSociety": 5698,
 "Ġyoun": 5699,
 "ĠBob": 5700,
 "ĠRob": 5701,
 "Ġattended": 5702,
 "ĠMinister": 5703,
 "Ġbranch": 5704,
 "lib": 5705,
 "Ġbeyond": 5706,
 "Ġoutcomes": 5707,
 "Ġdrive": 5708,
 "Ġplane": 5709,
 "ĠBeautiful": 5710,
 ")(": 5711,
 "ĠMad": 5712,
 "ĠBig": 5713,
 "Ġserves": 5714,
 "Ġminor": 5715,
 "Ġlearned": 5716,
 "Ġderived": 5717,
 "''": 5718,
 "=\\": 5719,
 "tical": 5720,
 "omic": 5721,
 "anta": 5722,
 "())": 5723,
 "Ġterrit": 5724,
 "Ġvelocity": 5725,
 "Some": 5726,
 "isation": 5727,
 "Ġrating": 5728,
 "osen": 5729,
 "Ġheard": 5730,
 "connect": 5731,
 "Ġoffic": 5732,
 "idden": 5733,
 "Ġfraction": 5734,
 "roph": 5735,
 "ĠThomas": 5736,
 "Ġcircuit": 5737,
 "ðŁ": 5738,
 "Ġforward": 5739,
 "ĠWinter": 5740,
 "ĠDaily": 5741,
 "ĠLog": 5742,
 "ĠAlso": 5743,
 "ĠNews": 5744,
 "Ġmainly": 5745,
 "Ġabsol": 5746,
 "Ġelectricity": 5747,
 "Ġarchitecture": 5748,
 "Ġphrase": 5749,
 "ĠMuseum": 5750,
 "Pe": 5751,
 "ixt": 5752,
 "vi": 5753,
 "Ġplain": 5754,
 "Ġplatform": 5755,
 "Ġshell": 5756,
 "52": 5757,
 "Are": 5758,
 "main": 5759,
 "enced": 5760,
 "ĠOper": 5761,
 "aph": 5762,
 "group": 5763,
 "Ġguitar": 5764,
 "itors": 5765,
 "Ġstd": 5766,
 "oses": 5767,
 "imensional": 5768,
 "Ġthousands": 5769,
 "isher": 5770,
 "Ġbra": 5771,
 "Ġmoon": 5772,
 "ĠDen": 5773,
 "Ġcompleted": 5774,
 "Ġprints": 5775,
 "Ġasking": 5776,
 "Ġerrors": 5777,
 "arser": 5778,
 "Ġtechnique": 5779,
 "Ġmarried": 5780,
 "Ġcomponent": 5781,
 "Ġchoices": 5782,
 "Ġdro": 5783,
 "ĠCivil": 5784,
 "ĠMag": 5785,
 "Ġseek": 5786,
 "ocation": 5787,
 "Ġyourself": 5788,
 "Ġanyone": 5789,
 "Ġshowing": 5790,
 "Ġeating": 5791,
 "ulf": 5792,
 "ĠJun": 5793,
 "Ġboys": 5794,
 "$.": 5795,
 "Ġbatter": 5796,
 "Ġhockey": 5797,
 "Ġrevenue": 5798,
 "imize": 5799,
 "ĠIreland": 5800,
 "ĠHistor": 5801,
 "which": 5802,
 "bles": 5803,
 "fig": 5804,
 "zing": 5805,
 "ola": 5806,
 "ules": 5807,
 "ĠPac": 5808,
 "ĠWork": 5809,
 "ĠInformation": 5810,
 "ĠChic": 5811,
 "ools": 5812,
 "Ġagree": 5813,
 "Ġcategories": 5814,
 "elt": 5815,
 "ĠSolution": 5816,
 "ĠBal": 5817,
 "ĠRoad": 5818,
 "exp": 5819,
 "Ġgrav": 5820,
 "Ġconverts": 5821,
 "Ġcorrectly": 5822,
 "ĠArticle": 5823,
 "Ġkilometers": 5824,
 "vin": 5825,
 "Ġ1994": 5826,
 "ĠLearning": 5827,
 "Ġbeautiful": 5828,
 "Ġtherefore": 5829,
 "token": 5830,
 "Ġfacts": 5831,
 "azine": 5832,
 "ĠOnce": 5833,
 "Ġsugar": 5834,
 "ASA": 5835,
 "ĠFrank": 5836,
 "mas": 5837,
 "Ġclosed": 5838,
 "Ġ[[": 5839,
 "Ġsolving": 5840,
 "Ġeventually": 5841,
 "MM": 5842,
 "ati": 5843,
 "Ġbud": 5844,
 "Ġbond": 5845,
 "oting": 5846,
 "Ġ2022": 5847,
 "Ġprefer": 5848,
 "ĠProject": 5849,
 "Ġrestaurant": 5850,
 "Ġocean": 5851,
 "Ġoxygen": 5852,
 "Ġpow": 5853,
 "Ġrevers": 5854,
 "using": 5855,
 "ĠLu": 5856,
 "Ġserve": 5857,
 "Ġspecifically": 5858,
 "Ġestimate": 5859,
 "Ġ:=": 5860,
 "Ġfourth": 5861,
 "Ġconcaten": 5862,
 "ĠRussia": 5863,
 "txt": 5864,
 "Ġtal": 5865,
 "Ġvision": 5866,
 "Ġrelative": 5867,
 "ĠLeg": 5868,
 "Ġformatted": 5869,
 "Ġpoet": 5870,
 "nic": 5871,
 "iced": 5872,
 "Ġrates": 5873,
 "Ġarm": 5874,
 "Ġteams": 5875,
 "issions": 5876,
 "Ġarticles": 5877,
 "century": 5878,
 "Ġcomprehensive": 5879,
 "Ġbroadcast": 5880,
 "Ġincorpor": 5881,
 "07": 5882,
 "bar": 5883,
 "ÃĹ": 5884,
 "Ġtiss": 5885,
 "Ġmac": 5886,
 "choice": 5887,
 "estival": 5888,
 "Ġbackground": 5889,
 "Äĥ": 5890,
 "Ġmouth": 5891,
 "ĠBur": 5892,
 "Ġpackage": 5893,
 "ĠDespite": 5894,
 "orph": 5895,
 "ĠMountain": 5896,
 "Ġleave": 5897,
 "Ġresistance": 5898,
 "Ġdefe": 5899,
 "Ġdebut": 5900,
 "ĠAngel": 5901,
 "rams": 5902,
 "Ġsnow": 5903,
 "oded": 5904,
 "ĠRun": 5905,
 "Ġheavy": 5906,
 "They": 5907,
 "Ġowned": 5908,
 "65": 5909,
 "rum": 5910,
 "atus": 5911,
 "etch": 5912,
 "Ġexhib": 5913,
 "ĠRh": 5914,
 "ĠWeb": 5915,
 "Ġinfect": 5916,
 "Ġfilms": 5917,
 "(\\": 5918,
 "aland": 5919,
 "Ġreached": 5920,
 "Ġcenturies": 5921,
 "Ġvirt": 5922,
 "ini": 5923,
 "orough": 5924,
 "Ġinner": 5925,
 "Ġusage": 5926,
 "weight": 5927,
 "Ind": 5928,
 "Ġtrig": 5929,
 "Ġbreath": 5930,
 "Ġbehavi": 5931,
 "ĠSwed": 5932,
 "Ġdedic": 5933,
 "Ġbasketball": 5934,
 "norm": 5935,
 "ĠDesign": 5936,
 "Ġ`\"": 5937,
 "azz": 5938,
 "ĠPlay": 5939,
 "ĠMusic": 5940,
 "Ġphenomen": 5941,
 "TP": 5942,
 "wa": 5943,
 "tee": 5944,
 "Ġflight": 5945,
 "Ġeastern": 5946,
 "Ġduplic": 5947,
 "ĠRichard": 5948,
 "Ġmo": 5949,
 "Ġdrug": 5950,
 "ĠAv": 5951,
 "ĠIll": 5952,
 "ĠPan": 5953,
 "Ġ\"\"": 5954,
 "Ġign": 5955,
 "inte": 5956,
 "ĠParliament": 5957,
 "MS": 5958,
 "rec": 5959,
 "also": 5960,
 "ĠAS": 5961,
 "Ġlegs": 5962,
 "ĠBritain": 5963,
 "bal": 5964,
 "cher": 5965,
 "itz": 5966,
 "Ġdial": 5967,
 "Ġnarr": 5968,
 "Ġstorage": 5969,
 "ĠPenn": 5970,
 "ĠDNA": 5971,
 "Ġadvent": 5972,
 "Ġclassroom": 5973,
 "rows": 5974,
 "Ġsmallest": 5975,
 "ĠSpain": 5976,
 "Ġtells": 5977,
 "Ġtouch": 5978,
 "Type": 5979,
 "YY": 5980,
 "heim": 5981,
 "itis": 5982,
 "Ġhop": 5983,
 "Ġchance": 5984,
 "Ġalgorithms": 5985,
 "Ġfrequently": 5986,
 "ĠRecords": 5987,
 "Soup": 5988,
 "Ġfear": 5989,
 "ĠTor": 5990,
 "Ġblog": 5991,
 "cipl": 5992,
 "ĠShow": 5993,
 "Ġconflict": 5994,
 "attr": 5995,
 "ittle": 5996,
 "Ġmix": 5997,
 "ĠWell": 5998,
 "lower": 5999,
 "ĠĠĠĠĠĠĠĠĠĠĠĠĠĠĠĠĠĠĠĠĠĠĠĠĠĠĠĠĠĠĠĠ": 6000,
 "Trans": 6001,
 "Enter": 6002,
 "ĠScottish": 6003,
 "ned": 6004,
 "Ġaim": 6005,
 "ĠCre": 6006,
 "umin": 6007,
 "Ġalcohol": 6008,
 "Ġcalculated": 6009,
 "Ġcalculates": 6010,
 "theta": 6011,
 "float": 6012,
 "tage": 6013,
 "aria": 6014,
 "second": 6015,
 "phas": 6016,
 "plications": 6017,
 "Ġsignal": 6018,
 "Output": 6019,
 "Ġq": 6020,
 "ĠCap": 6021,
 "ptions": 6022,
 "Ġpractices": 6023,
 "Eng": 6024,
 "rier": 6025,
 "Part": 6026,
 "Ġinternal": 6027,
 "Ġbag": 6028,
 "ĠFibonacci": 6029,
 "ĠLand": 6030,
 "plate": 6031,
 "igned": 6032,
 "Ġdisorder": 6033,
 "Ġ||": 6034,
 "Ġmotor": 6035,
 "clusion": 6036,
 "86": 6037,
 "ker": 6038,
 "ĠDu": 6039,
 "areer": 6040,
 "Ġidentified": 6041,
 "Ġconfig": 6042,
 "87": 6043,
 "UR": 6044,
 "Ġvoice": 6045,
 "osure": 6046,
 "ĠLife": 6047,
 "Ġgoals": 6048,
 "Ġ75": 6049,
 "Ġsummary": 6050,
 "Ġallowed": 6051,
 "Ġcontinued": 6052,
 "box": 6053,
 "Ġhappen": 6054,
 "xi": 6055,
 "Ġtaught": 6056,
 "Ġaircraft": 6057,
 "idth": 6058,
 "Ġasc": 6059,
 "ĠFree": 6060,
 "abc": 6061,
 "Ġshared": 6062,
 "acter": 6063,
 "ĠJewish": 6064,
 "Ġfully": 6065,
 "ias": 6066,
 "mut": 6067,
 "ãĤ": 6068,
 "Ġbodies": 6069,
 "ĠEven": 6070,
 "Ġintended": 6071,
 "ĠâĢ¢": 6072,
 "Ġera": 6073,
 "Ġrelevant": 6074,
 "Ġlandsc": 6075,
 "Ġcourt": 6076,
 "Ġprotein": 6077,
 "Ġpaint": 6078,
 "Ġadvant": 6079,
 "ĠIII": 6080,
 "Ġtranslation": 6081,
 "********": 6082,
 "Ġgirl": 6083,
 "ocratic": 6084,
 "81": 6085,
 "Track": 6086,
 "reci": 6087,
 "Ġsales": 6088,
 "irt": 6089,
 "ĠBrown": 6090,
 "ĠWorks": 6091,
 "Ġspot": 6092,
 "Ġsurvey": 6093,
 "Ġparticles": 6094,
 "03": 6095,
 "xic": 6096,
 "Ġgod": 6097,
 "ĠIP": 6098,
 "Ġequipment": 6099,
 "ometric": 6100,
 "Ġadvance": 6101,
 "Ġgenetic": 6102,
 "ĠSmith": 6103,
 "Ġspeech": 6104,
 "ĠExpl": 6105,
 "prehens": 6106,
 "Ġtranslate": 6107,
 "Ġmedicine": 6108,
 "Ġspirit": 6109,
 "Ġnavig": 6110,
 "ections": 6111,
 "zil": 6112,
 "Ġsin": 6113,
 "lement": 6114,
 "ĠCD": 6115,
 "ipedia": 6116,
 "anged": 6117,
 "Ġinteract": 6118,
 "Ġplanning": 6119,
 "Ġcycle": 6120,
 "related": 6121,
 "Ġcandid": 6122,
 "LL": 6123,
 "Node": 6124,
 "eline": 6125,
 "ĠAk": 6126,
 "Ġyellow": 6127,
 "Ġnote": 6128,
 "ressed": 6129,
 "cycl": 6130,
 "ructure": 6131,
 "ĠIsrael": 6132,
 "Ġchanging": 6133,
 "Ġfloor": 6134,
 "Pop": 6135,
 "Ġsport": 6136,
 "Ġgenerates": 6137,
 "Ġregions": 6138,
 "Ġreads": 6139,
 "ikipedia": 6140,
 "Ġsevere": 6141,
 "encing": 6142,
 "Ġtransportation": 6143,
 "hello": 6144,
 "Ġintelligence": 6145,
 "Ass": 6146,
 "Ġcart": 6147,
 "ĠBattle": 6148,
 "Ġroots": 6149,
 "version": 6150,
 "ĠIsl": 6151,
 "Ġrelationships": 6152,
 "ĠFoundation": 6153,
 "Ġhar": 6154,
 "Ġhom": 6155,
 "Ġhope": 6156,
 "ĠAD": 6157,
 "ĠMicro": 6158,
 "ĠBased": 6159,
 "ĠWales": 6160,
 "Ġrivers": 6161,
 "plot": 6162,
 "Ġtruth": 6163,
 "Ġboy": 6164,
 "Ġcounts": 6165,
 "âĢ¦âĢ¦": 6166,
 "Ġalphabet": 6167,
 "map": 6168,
 "uing": 6169,
 "Ġreaction": 6170,
 "ĠMethod": 6171,
 "Ġbelief": 6172,
 "ĠService": 6173,
 "your": 6174,
 "Ġcamer": 6175,
 "itt": 6176,
 "Ġbed": 6177,
 "ĠBet": 6178,
 "acher": 6179,
 "ĠOF": 6180,
 "Ġappoint": 6181,
 "Ġidentity": 6182,
 "ĠMont": 6183,
 "Ġindustrial": 6184,
 "43": 6185,
 "83": 6186,
 "Ġmut": 6187,
 "Ġdie": 6188,
 "ĠAut": 6189,
 "inder": 6190,
 "Ġpeace": 6191,
 "Ġrelatively": 6192,
 "ĠForce": 6193,
 "Ġoldest": 6194,
 "parse": 6195,
 "Ġdiam": 6196,
 "Ġexperiences": 6197,
 "Ġstored": 6198,
 "Ġ@": 6199,
 "amily": 6200,
 "ĠMa": 6201,
 "Ġord": 6202,
 "Ġunivers": 6203,
 "Ġmusical": 6204,
 "force": 6205,
 "ĠGrand": 6206,
 "ammar": 6207,
 "Ġfamiliar": 6208,
 "ĠGeorgia": 6209,
 "Our": 6210,
 "ĠInc": 6211,
 "ĠBeautifulSoup": 6212,
 "last": 6213,
 "ĠMel": 6214,
 "Ġsec": 6215,
 "ĠWho": 6216,
 "Ġworldwide": 6217,
 "Reg": 6218,
 "ĠBoth": 6219,
 "Ġactions": 6220,
 "Ġ1995": 6221,
 "ithmetic": 6222,
 "ĠPrint": 6223,
 "Use": 6224,
 "Ġbow": 6225,
 "Ġevolution": 6226,
 "Ġdiabetes": 6227,
 "Ġinstaller": 6228,
 "Ġcontinues": 6229,
 "ĠFrancis": 6230,
 "ĠPacific": 6231,
 "Ed": 6232,
 "hire": 6233,
 "public": 6234,
 "Ġaims": 6235,
 "orch": 6236,
 "Ġbattle": 6237,
 "image": 6238,
 "Ġvit": 6239,
 "ĠBre": 6240,
 "agine": 6241,
 "Ġlisted": 6242,
 "Ġcompetition": 6243,
 "Ġopportunity": 6244,
 "cm": 6245,
 "hand": 6246,
 "ship": 6247,
 "asion": 6248,
 "Ġlov": 6249,
 "ĠSocial": 6250,
 "ĠCy": 6251,
 "Ġyield": 6252,
 "Ġ('": 6253,
 "ĠBul": 6254,
 "vector": 6255,
 "Ġheav": 6256,
 "Ġextension": 6257,
 "Ġopening": 6258,
 "Ġeasier": 6259,
 "Ġâī": 6260,
 "72": 6261,
 "uh": 6262,
 "world": 6263,
 "Ġreb": 6264,
 "Ġuniverse": 6265,
 "ĠUsing": 6266,
 "Ġaccel": 6267,
 "Ġsigned": 6268,
 "Ġincome": 6269,
 "Ġing": 6270,
 "Ġtut": 6271,
 "Ġmur": 6272,
 "ĠMer": 6273,
 "osa": 6274,
 "ĠOcean": 6275,
 "rugs": 6276,
 "Ġsubstring": 6277,
 "expected": 6278,
 "Ġcomputers": 6279,
 "ĠChicago": 6280,
 "ĠCS": 6281,
 "erse": 6282,
 "ĠAnn": 6283,
 "Ġguess": 6284,
 "Ġtrip": 6285,
 "Ġslight": 6286,
 "poses": 6287,
 "Ġcriteria": 6288,
 "Ġdomain": 6289,
 "Ġdimensions": 6290,
 "Am": 6291,
 "Go": 6292,
 "OP": 6293,
 "rated": 6294,
 "Ġcro": 6295,
 "Ġcats": 6296,
 "roid": 6297,
 "Ġstaff": 6298,
 "Ġsigns": 6299,
 "ĠOrig": 6300,
 "Ġrespectively": 6301,
 "cipal": 6302,
 "})": 6303,
 "ĠMo": 6304,
 "ĠHill": 6305,
 "Ġprovince": 6306,
 "price": 6307,
 "123": 6308,
 "uthors": 6309,
 "Ġexperts": 6310,
 "Ġdeliver": 6311,
 "Ġlaun": 6312,
 "trans": 6313,
 "ĠMathematics": 6314,
 "ĠIntegr": 6315,
 "74": 6316,
 "Dist": 6317,
 "Per": 6318,
 "rey": 6319,
 "orter": 6320,
 "ita": 6321,
 "Ġonto": 6322,
 "arest": 6323,
 "Ġserving": 6324,
 "Ġholds": 6325,
 "Ġcampaign": 6326,
 "'d": 6327,
 "kl": 6328,
 "Ġroute": 6329,
 "Ġplans": 6330,
 "izon": 6331,
 "ĠVer": 6332,
 "Ġgeneration": 6333,
 "Ġneighbor": 6334,
 "Sp": 6335,
 "View": 6336,
 "Ġdates": 6337,
 "Ġlic": 6338,
 "ĠAward": 6339,
 "ĠFil": 6340,
 "Ġunion": 6341,
 "Ġleaving": 6342,
 "Ġprices": 6343,
 "ermine": 6344,
 "Ġinfl": 6345,
 "ĠGoogle": 6346,
 "Ġadministr": 6347,
 "Orig": 6348,
 "inity": 6349,
 "Ġfasc": 6350,
 "Ġuns": 6351,
 "ĠâĨĴ": 6352,
 "Ġdistricts": 6353,
 "Ġinstrument": 6354,
 "RU": 6355,
 "power": 6356,
 "Ð»": 6357,
 "ĠIS": 6358,
 "riculum": 6359,
 "pective": 6360,
 "Ġtemperatures": 6361,
 "Ġfluid": 6362,
 "Ġsweet": 6363,
 "Biography": 6364,
 "bi": 6365,
 "lambda": 6366,
 "ĠOrgan": 6367,
 "ylvan": 6368,
 "Ġnuclear": 6369,
 "hem": 6370,
 "ora": 6371,
 "Ġdin": 6372,
 "ili": 6373,
 "ĠAtt": 6374,
 "ĠLess": 6375,
 "endar": 6376,
 "``````": 6377,
 "ĠTechnology": 6378,
 "cest": 6379,
 "cimal": 6380,
 "anted": 6381,
 "ĠChapter": 6382,
 "Ġminute": 6383,
 "Ġturned": 6384,
 "Ġstatistics": 6385,
 "ĠArea": 6386,
 "ĠLinux": 6387,
 "Ġsituated": 6388,
 "ped": 6389,
 "rons": 6390,
 "ĠÙ": 6391,
 "ĠFollow": 6392,
 "illa": 6393,
 "ĠProduct": 6394,
 "Ġcalculator": 6395,
 "ĠAdditionally": 6396,
 "Ä±n": 6397,
 "Ġprotection": 6398,
 "Ġalternative": 6399,
 "ĠGovernment": 6400,
 "sm": 6401,
 "Ġhospital": 6402,
 "Ġlst": 6403,
 "ĠCat": 6404,
 "ĠInf": 6405,
 "ansion": 6406,
 "Ġcoeff": 6407,
 "Ġfoundation": 6408,
 "Ġtried": 6409,
 "ĠNext": 6410,
 "rich": 6411,
 "Ġple": 6412,
 "Ġisol": 6413,
 "ella": 6414,
 "Ġpassage": 6415,
 "ibrary": 6416,
 "Ġinitially": 6417,
 "Ġrevolution": 6418,
 "Ġthousand": 6419,
 "ĠHenry": 6420,
 "dimensional": 6421,
 "iately": 6422,
 "uan": 6423,
 "ãĥ": 6424,
 "ä¸": 6425,
 "Ġwaves": 6426,
 "ĠPeter": 6427,
 "estamp": 6428,
 "Ġchain": 6429,
 "Ġcontract": 6430,
 "Ġformal": 6431,
 "Ġterminal": 6432,
 "Ġvalidate": 6433,
 "Ġaffected": 6434,
 "Ġconducted": 6435,
 "Ġpremise": 6436,
 "$,": 6437,
 "ĠDig": 6438,
 "prime": 6439,
 "Ġsilver": 6440,
 "Many": 6441,
 "Person": 6442,
 "Äģ": 6443,
 "ano": 6444,
 "amics": 6445,
 "Ġuniversity": 6446,
 "Ġcloud": 6447,
 "rupt": 6448,
 "Ġpreview": 6449,
 "();": 6450,
 "Ġstandards": 6451,
 "inet": 6452,
 "ĠTem": 6453,
 "throp": 6454,
 "soft": 6455,
 "ĠEnergy": 6456,
 "Ġhun": 6457,
 "ĠRail": 6458,
 "ĠStation": 6459,
 "owned": 6460,
 "Ġeditor": 6461,
 "Ġ1993": 6462,
 "ĠColor": 6463,
 "Ġinterested": 6464,
 "Ġchallenge": 6465,
 "Ġvacc": 6466,
 "??": 6467,
 "ras": 6468,
 "Ġ=>": 6469,
 "Ġprepar": 6470,
 "Ġends": 6471,
 "Ġvehicle": 6472,
 "ĠZealand": 6473,
 "rep": 6474,
 "ĠGal": 6475,
 "ologists": 6476,
 "ĠExplain": 6477,
 "Ġpresence": 6478,
 "Ġaccompl": 6479,
 "Ġefforts": 6480,
 "Ġinterpret": 6481,
 "Ġcitizens": 6482,
 "Most": 6483,
 "Ġinsect": 6484,
 "Ġdive": 6485,
 "Ġnine": 6486,
 "ĠPerson": 6487,
 "Ġhear": 6488,
 "Ġattract": 6489,
 "Ġmilk": 6490,
 "Ġanti": 6491,
 "Ġintroduction": 6492,
 "Mod": 6493,
 "friend": 6494,
 "nel": 6495,
 "ishes": 6496,
 "Ġce": 6497,
 "Ġnums": 6498,
 "Ġcontem": 6499,
 "Ġdetermined": 6500,
 "Ġsupported": 6501,
 "Form": 6502,
 "eding": 6503,
 "Ġevol": 6504,
 "ribe": 6505,
 "1111": 6506,
 "Ġdepartment": 6507,
 "Ġelectrical": 6508,
 "mean": 6509,
 "Ġdeaths": 6510,
 "ĠUnderstanding": 6511,
 "ĠIrish": 6512,
 "ded": 6513,
 "kin": 6514,
 "Ġsav": 6515,
 "Ġyouth": 6516,
 "Ġconsequ": 6517,
 "Ġwearing": 6518,
 "ĠStart": 6519,
 "aska": 6520,
 "ĠScotland": 6521,
 "pack": 6522,
 "Ġcore": 6523,
 "Ġfro": 6524,
 "Ġinternet": 6525,
 "icians": 6526,
 "oles": 6527,
 "ĠSar": 6528,
 "ĠChoose": 6529,
 "Ġemphas": 6530,
 "Ġreports": 6531,
 "Ġrequirements": 6532,
 "Ġaxis": 6533,
 "ĠCongress": 6534,
 "page": 6535,
 "Â²": 6536,
 "ione": 6537,
 "ĠEvery": 6538,
 "Ġexpon": 6539,
 "ashion": 6540,
 "ĠLevel": 6541,
 "what": 6542,
 "ĠValley": 6543,
 "Ġsurrounding": 6544,
 "ĠVirginia": 6545,
 "ua": 6546,
 "Ġhomes": 6547,
 "Ġreality": 6548,
 "ĠPop": 6549,
 "ady": 6550,
 "Ġinteractive": 6551,
 "Ġactor": 6552,
 "Ġwindow": 6553,
 "Ġderiv": 6554,
 "Ġannounced": 6555,
 "two": 6556,
 "Ġtables": 6557,
 "asy": 6558,
 "ĠChildren": 6559,
 "ENT": 6560,
 "Ġfavorite": 6561,
 "51": 6562,
 "Ġ400": 6563,
 "Ġcompr": 6564,
 "ylvania": 6565,
 "71": 6566,
 "Time": 6567,
 "àª": 6568,
 "Ġfaster": 6569,
 "Ġquarter": 6570,
 "#####": 6571,
 "Ġmeets": 6572,
 "Ġdiscovery": 6573,
 "Ġcreation": 6574,
 "UN": 6575,
 "ĠCamp": 6576,
 "Ġunknown": 6577,
 "ĠBrazil": 6578,
 "Sum": 6579,
 "Up": 6580,
 "table": 6581,
 "{'": 6582,
 "edom": 6583,
 "icon": 6584,
 "ishop": 6585,
 "enses": 6586,
 "Ġpolynomial": 6587,
 "Ġedges": 6588,
 "Ġtalking": 6589,
 "Ġopposite": 6590,
 "ipe": 6591,
 "mm": 6592,
 "ĠSouthern": 6593,
 "ĠCast": 6594,
 "uly": 6595,
 "Ġ1991": 6596,
 "Ġexpert": 6597,
 "zech": 6598,
 "display": 6599,
 "unctuation": 6600,
 "itter": 6601,
 "Ġgender": 6602,
 "istical": 6603,
 "Ġalone": 6604,
 "Ġleague": 6605,
 "ĠJer": 6606,
 "Ġkilled": 6607,
 "Ġartificial": 6608,
 "Ġnearby": 6609,
 "ca": 6610,
 "iat": 6611,
 "orb": 6612,
 "owels": 6613,
 "ĠLo": 6614,
 "ĠLord": 6615,
 "Ġstudio": 6616,
 "cious": 6617,
 "iki": 6618,
 "Ġinvolve": 6619,
 "73": 6620,
 "het": 6621,
 "Ġsoci": 6622,
 "Ġfalse": 6623,
 "Ġtoward": 6624,
 "ett": 6625,
 "Ġgal": 6626,
 "abul": 6627,
 "ĠAlgebra": 6628,
 "Ġmerge": 6629,
 "Ġrecognized": 6630,
 "Ġlayer": 6631,
 "ĠJoseph": 6632,
 "People": 6633,
 "Career": 6634,
 "Using": 6635,
 "[\"": 6636,
 "but": 6637,
 "cript": 6638,
 "sentence": 6639,
 "Ġ]": 6640,
 "ĠTri": 6641,
 "Ġclick": 6642,
 "Ġmanip": 6643,
 "Ġentered": 6644,
 "Ġliquid": 6645,
 "Life": 6646,
 "pop": 6647,
 "iders": 6648,
 "ĠMov": 6649,
 "ocument": 6650,
 "plex": 6651,
 "Ġdistingu": 6652,
 "auty": 6653,
 "Ġprofession": 6654,
 "Ġcubic": 6655,
 "inger": 6656,
 "Ġ1950": 6657,
 "Ġpeak": 6658,
 "');": 6659,
 "Ġinstalling": 6660,
 "Once": 6661,
 "Over": 6662,
 "Welcome": 6663,
 "bin": 6664,
 "alls": 6665,
 "ectors": 6666,
 "ryst": 6667,
 "ractice": 6668,
 "ĠConvert": 6669,
 "Ġproposed": 6670,
 "prehensive": 6671,
 "Back": 6672,
 "Or": 6673,
 "She": 6674,
 "SQL": 6675,
 "va": 6676,
 "}^{": 6677,
 "itage": 6678,
 "ogen": 6679,
 "score": 6680,
 "Ġlabels": 6681,
 "Ġappearance": 6682,
 "Ġeggs": 6683,
 "Ġmessages": 6684,
 "53": 6685,
 "umps": 6686,
 "abeth": 6687,
 "common": 6688,
 "oken": 6689,
 "Ġbreast": 6690,
 "Ġillness": 6691,
 "ĠEngineering": 6692,
 "!\"": 6693,
 "Data": 6694,
 "ĠCa": 6695,
 "oto": 6696,
 "Ġvess": 6697,
 "Ġconsec": 6698,
 "ĠKar": 6699,
 "Ġcombinations": 6700,
 "ĠDefine": 6701,
 "Ap": 6702,
 "DE": 6703,
 "chers": 6704,
 "pm": 6705,
 "Ã¢": 6706,
 "Ġstone": 6707,
 "sole": 6708,
 "Ġoverl": 6709,
 "Ġcomplexity": 6710,
 "Ġhttps": 6711,
 "Ġrectangle": 6712,
 "ĠProfessor": 6713,
 "Ġparallel": 6714,
 "Solution": 6715,
 "bur": 6716,
 "Ġwarn": 6717,
 "ette": 6718,
 "alled": 6719,
 "Ġ''": 6720,
 "iance": 6721,
 "Ġcorner": 6722,
 "61": 6723,
 "Ġwire": 6724,
 "Ġpush": 6725,
 "Ġbone": 6726,
 "Ġspend": 6727,
 "negative": 6728,
 "Ġupdate": 6729,
 "âĢĿ.": 6730,
 "Ġalbums": 6731,
 "Ġimmediately": 6732,
 "[]": 6733,
 "sen": 6734,
 "Ġtips": 6735,
 "real": 6736,
 "atically": 6737,
 "Ġchosen": 6738,
 "Ġkid": 6739,
 "Ġgrid": 6740,
 "Ġpassion": 6741,
 "tty": 6742,
 "Ġfinished": 6743,
 "ĠFlask": 6744,
 "points": 6745,
 "Ġdomin": 6746,
 "Ġcouple": 6747,
 "Ġcatch": 6748,
 "Ġdrugs": 6749,
 "ĠSupp": 6750,
 "asty": 6751,
 "Ġmanage": 6752,
 "Ġtheme": 6753,
 "onday": 6754,
 "azon": 6755,
 "Ġtechnologies": 6756,
 "Ġ1988": 6757,
 "Ġremoved": 6758,
 "ĠJesus": 6759,
 "Ġtank": 6760,
 "Ġpul": 6761,
 "ctic": 6762,
 "Ġfort": 6763,
 "ĠDutch": 6764,
 "ĠOl": 6765,
 "Ġmyster": 6766,
 "Ġepisode": 6767,
 "ĠColumbia": 6768,
 "May": 6769,
 "bour": 6770,
 "hour": 6771,
 "Ġsister": 6772,
 "Ġban": 6773,
 "aste": 6774,
 "Ġhuge": 6775,
 "Ġvoid": 6776,
 "ĠRome": 6777,
 "Ġmanner": 6778,
 "Ġphase": 6779,
 "Ġready": 6780,
 "Ġgrew": 6781,
 "ĠPrep": 6782,
 "Ġcustomers": 6783,
 "gu": 6784,
 "ĠSearch": 6785,
 "Ġ(-": 6786,
 "iform": 6787,
 "Ġpromin": 6788,
 "ĠRock": 6789,
 "ĠGood": 6790,
 "Ġproperly": 6791,
 "Ġcausing": 6792,
 "datetime": 6793,
 "Ġatmosphere": 6794,
 "41": 6795,
 "car": 6796,
 "Ġdoll": 6797,
 "Ġbyte": 6798,
 "Ġunf": 6799,
 "Ġentry": 6800,
 "Ġmuse": 6801,
 "Ġfinally": 6802,
 "ercase": 6803,
 "ĠStudy": 6804,
 "Ġstrategies": 6805,
 "Ġec": 6806,
 "adium": 6807,
 "Ġwhom": 6808,
 "ĠDirect": 6809,
 "ĠEst": 6810,
 "angular": 6811,
 "cluding": 6812,
 "Ġcarried": 6813,
 "Ġemerg": 6814,
 "Ġpounds": 6815,
 "osh": 6816,
 "aka": 6817,
 "Ġorganic": 6818,
 "Ġdocuments": 6819,
 "ĠCommission": 6820,
 "Ġchoosing": 6821,
 "ĠIntroduction": 6822,
 "cal": 6823,
 "Ġda": 6824,
 "igan": 6825,
 "ĠNASA": 6826,
 "iox": 6827,
 "Ġsaying": 6828,
 "bury": 6829,
 "ĠJournal": 6830,
 "aped": 6831,
 "Ġowners": 6832,
 "Ġvoltage": 6833,
 "Ġforeign": 6834,
 "Ġwinning": 6835,
 "Ġreplacement": 6836,
 "Ġintegral": 6837,
 "Ġemotional": 6838,
 "base": 6839,
 "sl": 6840,
 "replace": 6841,
 "Ġfill": 6842,
 "ategy": 6843,
 "Ġclassical": 6844,
 "ĠSpring": 6845,
 "Ġvisited": 6846,
 "Ġaffects": 6847,
 "ĠOtherwise": 6848,
 "ME": 6849,
 "kes": 6850,
 "then": 6851,
 "total": 6852,
 "Ġiron": 6853,
 "ribed": 6854,
 "ĠAlice": 6855,
 "Ġpandas": 6856,
 "Ġdedicated": 6857,
 "var": 6858,
 "Ġfert": 6859,
 "stream": 6860,
 "ĠSil": 6861,
 "qual": 6862,
 "Ġartists": 6863,
 "Ġdecide": 6864,
 "Ġefficiency": 6865,
 "Ġ<<": 6866,
 "Ġconstitu": 6867,
 "clusive": 6868,
 "ĠMartin": 6869,
 "à§": 6870,
 "Ġ###": 6871,
 "ĠMot": 6872,
 "Ġrough": 6873,
 "ĠGMAT": 6874,
 "uster": 6875,
 "ĠAnalysis": 6876,
 "ĠBlue": 6877,
 "ĠOhio": 6878,
 "ĠRuby": 6879,
 "ĠSov": 6880,
 "ĠSQL": 6881,
 "ĠFood": 6882,
 "Ġenh": 6883,
 "Ġnewspaper": 6884,
 "95": 6885,
 "EG": 6886,
 "care": 6887,
 "iable": 6888,
 "Ġhelping": 6889,
 "ername": 6890,
 "Ġstrategy": 6891,
 "Ġstands": 6892,
 "Ġmarbles": 6893,
 "Ġassertion": 6894,
 "Ġstream": 6895,
 "ĠLinear": 6896,
 "Ġbudget": 6897,
 "During": 6898,
 "Ġthread": 6899,
 "under": 6900,
 "Ġstations": 6901,
 "isters": 6902,
 "ĠPen": 6903,
 "ocated": 6904,
 "Ġclin": 6905,
 "ĠComprehensive": 6906,
 "Ġallowing": 6907,
 "Ġstret": 6908,
 "ĠCourt": 6909,
 "heets": 6910,
 "Ġstores": 6911,
 "allow": 6912,
 "api": 6913,
 "Ġdoor": 6914,
 "Ġlowercase": 6915,
 "ĠBasic": 6916,
 "filter": 6917,
 "Man": 6918,
 "ĠLos": 6919,
 "Ġ48": 6920,
 "Ġscene": 6921,
 "Ġtradition": 6922,
 "Ġmodified": 6923,
 "ognitive": 6924,
 "ban": 6925,
 "kins": 6926,
 "lÄ±": 6927,
 "ĠTHE": 6928,
 "ami": 6929,
 "emic": 6930,
 "Ġnotation": 6931,
 "Ġ{\"": 6932,
 "Ġmedium": 6933,
 "Ġsquares": 6934,
 "Ġtooth": 6935,
 "ĠPhysics": 6936,
 "stra": 6937,
 "iments": 6938,
 "ĠCost": 6939,
 "ĠCzech": 6940,
 "ĠPet": 6941,
 "ĠBus": 6942,
 "izabeth": 6943,
 "Ġcontrast": 6944,
 "Ġowner": 6945,
 "Ġtemp": 6946,
 "Ġfeeling": 6947,
 "gon": 6948,
 "ses": 6949,
 "Ġinvalid": 6950,
 "eli": 6951,
 "anda": 6952,
 "ĠJo": 6953,
 "Ġmanager": 6954,
 "reek": 6955,
 "Ġpregn": 6956,
 "Ġpractical": 6957,
 "ÂłÂłÂłÂłÂłÂłÂłÂł": 6958,
 "Ġrepeated": 6959,
 "Ġlaunched": 6960,
 "%.": 6961,
 "'])": 6962,
 "Search": 6963,
 "[:": 6964,
 "gal": 6965,
 "kish": 6966,
 "tra": 6967,
 "ĠðŁ": 6968,
 "ĠCamb": 6969,
 "ĠBest": 6970,
 "open": 6971,
 "riage": 6972,
 "Ġcontents": 6973,
 "ĠView": 6974,
 "Ġpasseng": 6975,
 "Ġeffectively": 6976,
 "Ġnutrit": 6977,
 "Value": 6978,
 "Ġvs": 6979,
 "ĠHaw": 6980,
 "ĠGen": 6981,
 "ĠStar": 6982,
 "ĠString": 6983,
 "Ġelectron": 6984,
 "Ġbirths": 6985,
 "newcommand": 6986,
 "writer": 6987,
 "message": 6988,
 "sylvania": 6989,
 "stract": 6990,
 "ĠLong": 6991,
 "ĠAssembly": 6992,
 "Ġ1986": 6993,
 "liest": 6994,
 "Ġindicate": 6995,
 "........": 6996,
 "Ġmal": 6997,
 "eta": 6998,
 "urance": 6999,
 "ĠPers": 7000,
 "Ġpred": 7001,
 "Ġapart": 7002,
 "rices": 7003,
 "Ġdepends": 7004,
 "linear": 7005,
 "Ġindicating": 7006,
 "Ġmeeting": 7007,
 "Ġpictures": 7008,
 "CA": 7009,
 "Ġtren": 7010,
 "atre": 7011,
 "Ġmist": 7012,
 "Ġgene": 7013,
 "ango": 7014,
 "Ġgrass": 7015,
 "elements": 7016,
 "Example": 7017,
 "Ġformerly": 7018,
 "Ġlibraries": 7019,
 "ĠLabor": 7020,
 "Ġinhabit": 7021,
 "kens": 7022,
 "pping": 7023,
 "ffic": 7024,
 "Ġstudying": 7025,
 "Ġmachines": 7026,
 "----------------": 7027,
 "PA": 7028,
 "iffer": 7029,
 "ĠBank": 7030,
 "ĠLike": 7031,
 "Ġroles": 7032,
 "create": 7033,
 "Ġexposure": 7034,
 "Ġmarked": 7035,
 "Ġquantum": 7036,
 "Ġdivisible": 7037,
 "Ġgather": 7038,
 "Ġstorm": 7039,
 "Ġ(,": 7040,
 "ĠNations": 7041,
 "Ġwealth": 7042,
 "Ġcurve": 7043,
 "Ġstatements": 7044,
 "ĠPrin": 7045,
 "Ġhousehold": 7046,
 "ĠCarolina": 7047,
 "Born": 7048,
 "frequ": 7049,
 "ĠPress": 7050,
 "oung": 7051,
 "Ġran": 7052,
 "Ġsuc": 7053,
 "Ġarmy": 7054,
 "Ġmarks": 7055,
 "going": 7056,
 "Ġsexual": 7057,
 "62": 7058,
 "gely": 7059,
 "Ġsoup": 7060,
 "Ġlun": 7061,
 "ĠTre": 7062,
 "ĠST": 7063,
 "ĠMax": 7064,
 "ĠGenerate": 7065,
 "Ġchapter": 7066,
 "Ġpartners": 7067,
 "Ġflood": 7068,
 "Ġages": 7069,
 "ĠConnect": 7070,
 "Ġturns": 7071,
 "color": 7072,
 "Ġvehicles": 7073,
 "Description": 7074,
 "pes": 7075,
 "urrent": 7076,
 "opher": 7077,
 "Ġdecisions": 7078,
 "Ġelectronic": 7079,
 "$$\\": 7080,
 "Ġlegisl": 7081,
 "\"`": 7082,
 "63": 7083,
 "Each": 7084,
 "Ã¸": 7085,
 "Ġpurs": 7086,
 "ĠMoon": 7087,
 "ĠWood": 7088,
 "Ġhearing": 7089,
 "Ġunc": 7090,
 "Ġarrays": 7091,
 "Ġplastic": 7092,
 "Ġimpossible": 7093,
 "Ġpainting": 7094,
 "Ġobtained": 7095,
 "âĢĭ": 7096,
 "ĠHand": 7097,
 "ĠNavy": 7098,
 "Ġpurposes": 7099,
 "However": 7100,
 "response": 7101,
 "Ġreduced": 7102,
 "Ġfigures": 7103,
 "ĠAlexander": 7104,
 "ĠValueError": 7105,
 "even": 7106,
 "ĠPak": 7107,
 "ĠWomen": 7108,
 "ublished": 7109,
 "That": 7110,
 "Ġhelped": 7111,
 "Ġangles": 7112,
 "ypes": 7113,
 "Ġframework": 7114,
 "Ġabsolute": 7115,
 "ĠRef": 7116,
 "Ġpositions": 7117,
 "Ġflag": 7118,
 "Ġtypical": 7119,
 "poration": 7120,
 "Ġdiscussion": 7121,
 "Ġpicking": 7122,
 "Ġevaluate": 7123,
 "Ġtiny": 7124,
 "ĠGraph": 7125,
 "Ġadop": 7126,
 "Ġprefix": 7127,
 "Ġproducer": 7128,
 "ĠIslands": 7129,
 "Ġideal": 7130,
 "Ġperiods": 7131,
 "ba": 7132,
 "Ġsoc": 7133,
 "ĠBa": 7134,
 "Ġchief": 7135,
 "ĠKent": 7136,
 "Ġindices": 7137,
 "Ġclassify": 7138,
 "Ġdestroy": 7139,
 "ĠPortug": 7140,
 "Ġbot": 7141,
 "ads": 7142,
 "Ġtowns": 7143,
 "ropical": 7144,
 "while": 7145,
 "Ġmeasured": 7146,
 "Ġdistributed": 7147,
 "Ġconversation": 7148,
 "Ġquantity": 7149,
 "Ġcomposition": 7150,
 "Ġwaters": 7151,
 "Ġshapes": 7152,
 "ĠSoviet": 7153,
 "Pre": 7154,
 "orate": 7155,
 "ĠIter": 7156,
 "ĠPo": 7157,
 "ĠProm": 7158,
 "ighth": 7159,
 "Ġselection": 7160,
 "Ġdriving": 7161,
 "Ġthick": 7162,
 "ĠDate": 7163,
 "ogue": 7164,
 "Ġsignificantly": 7165,
 "label": 7166,
 "Ġhorizon": 7167,
 "File": 7168,
 "RA": 7169,
 "run": 7170,
 "Ġsounds": 7171,
 "ĠBible": 7172,
 "obe": 7173,
 "Ġdepict": 7174,
 "Ġmeasurement": 7175,
 "Ġconsumption": 7176,
 "ĠNorway": 7177,
 "ĠModel": 7178,
 "Ġinjury": 7179,
 "Ġmountains": 7180,
 "Ġcredit": 7181,
 "tuple": 7182,
 "eper": 7183,
 "ĠAh": 7184,
 "Ġbeauty": 7185,
 "ĠBudd": 7186,
 "Ġexternal": 7187,
 "achus": 7188,
 "Ġconservation": 7189,
 "Ġappreci": 7190,
 "Ġlogical": 7191,
 "Ġswitch": 7192,
 "Ġmagazine": 7193,
 "Ġfifth": 7194,
 "ĠPennsylvania": 7195,
 "Ġtherm": 7196,
 "eties": 7197,
 "Ġshr": 7198,
 "Ġweak": 7199,
 "comm": 7200,
 "Ġlargely": 7201,
 "Ġleads": 7202,
 "Ġ1982": 7203,
 "ipped": 7204,
 "Ġholid": 7205,
 "Ġintersection": 7206,
 "ĠFun": 7207,
 "ĠLanguage": 7208,
 "ĠClick": 7209,
 "ĠPrime": 7210,
 "process": 7211,
 "IF": 7212,
 "war": 7213,
 "Ġauthors": 7214,
 "Ġprove": 7215,
 "ĠFort": 7216,
 "Ġneuro": 7217,
 "ĠJane": 7218,
 "Ġamb": 7219,
 "ĠSee": 7220,
 "ĠMedic": 7221,
 "ĠSolve": 7222,
 "ĠAirport": 7223,
 "CE": 7224,
 "ĠAge": 7225,
 "ĠCirc": 7226,
 "rency": 7227,
 "Ġcompound": 7228,
 "Ġinterface": 7229,
 "Ġ1989": 7230,
 "Ġlaunch": 7231,
 "ĠMedical": 7232,
 "Ġphilosophy": 7233,
 "Ġcomparison": 7234,
 "Don": 7235,
 "ÙĦ": 7236,
 "Ġpars": 7237,
 "Ġqual": 7238,
 "Ġupdated": 7239,
 "ĠEnter": 7240,
 "Ġcalculation": 7241,
 "Ġradiation": 7242,
 "Ġtraveled": 7243,
 "Ġhistoric": 7244,
 "ĠAtlantic": 7245,
 "ĠRevolution": 7246,
 "displaystyle": 7247,
 "Gener": 7248,
 "Last": 7249,
 "Ġfly": 7250,
 "Ġinstitution": 7251,
 "Ġcircum": 7252,
 "ĠTranslate": 7253,
 "Mat": 7254,
 "mes": 7255,
 "Ġmixed": 7256,
 "Ġreact": 7257,
 "Ġvote": 7258,
 "ĠArg": 7259,
 "Ġmedian": 7260,
 "Ġnumerical": 7261,
 "ienced": 7262,
 "Ġphrases": 7263,
 "Ġsituations": 7264,
 "abulary": 7265,
 "cies": 7266,
 "dir": 7267,
 "orrow": 7268,
 "Ġdiverse": 7269,
 "Ġgun": 7270,
 "acent": 7271,
 "ĠGre": 7272,
 "Ġchannel": 7273,
 "Ġarithmetic": 7274,
 "ĠThrough": 7275,
 "Ġpartial": 7276,
 "Ġgrammar": 7277,
 "coming": 7278,
 "Ġ1984": 7279,
 "Ġ1976": 7280,
 "Ġhappy": 7281,
 "Ġstreet": 7282,
 "Ġregarding": 7283,
 "IL": 7284,
 "Ser": 7285,
 "Sim": 7286,
 "Ġfirm": 7287,
 "adel": 7288,
 "Ġteen": 7289,
 "ruck": 7290,
 "ĠAny": 7291,
 "Ġregional": 7292,
 "Ġhyper": 7293,
 "ĠBoard": 7294,
 "Ġaccuracy": 7295,
 "ĠAbout": 7296,
 "Ġachieved": 7297,
 "ĠForest": 7298,
 "'],": 7299,
 ")-": 7300,
 "ÛĮ": 7301,
 "icate": 7302,
 "etts": 7303,
 "wegian": 7304,
 "ĠSecret": 7305,
 "Ġpoem": 7306,
 "check": 7307,
 "Ġportion": 7308,
 "udden": 7309,
 "Ġyounger": 7310,
 "\";": 7311,
 "Us": 7312,
 "direct": 7313,
 "mt": 7314,
 "reams": 7315,
 "icing": 7316,
 "Ġmile": 7317,
 "ĠSaint": 7318,
 "ĠBang": 7319,
 "Ġrural": 7320,
 "Ġshad": 7321,
 "ĠKey": 7322,
 "ĠScient": 7323,
 "Ġinvestment": 7324,
 "predict": 7325,
 "king": 7326,
 "ln": 7327,
 "Ġaf": 7328,
 "ented": 7329,
 "Ġvibr": 7330,
 "ĠBuild": 7331,
 "ĠEastern": 7332,
 "ĠLibrary": 7333,
 "akers": 7334,
 "Ġplus": 7335,
 "Ġplate": 7336,
 "iana": 7337,
 "Ġfindings": 7338,
 "Ġblocks": 7339,
 "Ġclassic": 7340,
 "ĠConf": 7341,
 "Ġperforms": 7342,
 "Ġdepos": 7343,
 "Ġpossess": 7344,
 "Ġlooked": 7345,
 "begin": 7346,
 "Ġgenus": 7347,
 "ĠControl": 7348,
 ".\")": 7349,
 "chen": 7350,
 "drome": 7351,
 "Ġcyl": 7352,
 "ĠBow": 7353,
 "Ġ33": 7354,
 "outheast": 7355,
 "Ġserial": 7356,
 "Ġ>=": 7357,
 "Ġexistence": 7358,
 "Ġnutri": 7359,
 "Ġearliest": 7360,
 "Ġtherapy": 7361,
 "ĠMulti": 7362,
 "ĠBol": 7363,
 "ĠWill": 7364,
 "Ġwear": 7365,
 "Ġarts": 7366,
 "Ġmuscle": 7367,
 "Ġmoves": 7368,
 "Ġdrawn": 7369,
 "Although": 7370,
 "Ġswim": 7371,
 "Ġbiggest": 7372,
 "Ġprinciple": 7373,
 "Ġopin": 7374,
 "82": 7375,
 "CS": 7376,
 "Lear": 7377,
 "inating": 7378,
 "ato": 7379,
 "ĠHuman": 7380,
 "Ġ34": 7381,
 "ĠVe": 7382,
 "lists": 7383,
 "Ġtechnical": 7384,
 "Ġconsisting": 7385,
 "Ġconstructed": 7386,
 "achusetts": 7387,
 "EM": 7388,
 "faces": 7389,
 "how": 7390,
 "Ġrom": 7391,
 "Ġ##": 7392,
 "ali": 7393,
 "entle": 7394,
 "ĠBu": 7395,
 "Ġcomfort": 7396,
 "Ġsmart": 7397,
 "ĠExcel": 7398,
 "Ġfocuses": 7399,
 "Ġindicates": 7400,
 "Ġrecursive": 7401,
 "Ġtheorem": 7402,
 "BA": 7403,
 "lay": 7404,
 "ĠÄ": 7405,
 "erved": 7406,
 "ancing": 7407,
 "Ġbin": 7408,
 "uting": 7409,
 "aya": 7410,
 "Ġclient": 7411,
 "Ġperhaps": 7412,
 "Ġquadr": 7413,
 "Ġmeant": 7414,
 "Ġ2023": 7415,
 "ĠAnaly": 7416,
 "Ġinterval": 7417,
 "ortunately": 7418,
 "cers": 7419,
 "Ġancest": 7420,
 "Ġmapping": 7421,
 "ĠTrain": 7422,
 "Ġconv": 7423,
 "Ġring": 7424,
 "ĠJack": 7425,
 "Ġnoted": 7426,
 "Ġpretty": 7427,
 "Ġdespite": 7428,
 "Ġmillions": 7429,
 "riday": 7430,
 "Ġaudience": 7431,
 "Ġoccurrences": 7432,
 "Ġconsecutive": 7433,
 "Ġsty": 7434,
 "ronze": 7435,
 "Ġmyst": 7436,
 "elsius": 7437,
 "Ġnetworks": 7438,
 "column": 7439,
 "content": 7440,
 "pattern": 7441,
 "Ġsenior": 7442,
 "yer": 7443,
 "ura": 7444,
 "ĠSir": 7445,
 "peror": 7446,
 "ĠKn": 7447,
 "Ġsurg": 7448,
 "Ġmatching": 7449,
 "ĠDoes": 7450,
 "Ġgraduated": 7451,
 "Ġhundreds": 7452,
 "Ġslightly": 7453,
 "!)": 7454,
 "eed": 7455,
 "eric": 7456,
 "aming": 7457,
 "ĠMen": 7458,
 "ĠMid": 7459,
 "ipher": 7460,
 "Ġsupposed": 7461,
 "Ġgoods": 7462,
 "Ġorganizations": 7463,
 "Expl": 7464,
 "ĠText": 7465,
 "Ġobserv": 7466,
 "lers": 7467,
 "uable": 7468,
 "Ġpuzz": 7469,
 "ĠSyn": 7470,
 "ĠBefore": 7471,
 "plete": 7472,
 "Ġscores": 7473,
 "Ġpersonality": 7474,
 "inois": 7475,
 "ĠCurrent": 7476,
 "ĠAngeles": 7477,
 "fall": 7478,
 "sk": 7479,
 "Ġcer": 7480,
 "ĠMill": 7481,
 "Ġproducing": 7482,
 "Ġcalls": 7483,
 "Ġedition": 7484,
 "Ġentertain": 7485,
 "Ġvertices": 7486,
 "Two": 7487,
 "Ġsac": 7488,
 "Ġhus": 7489,
 "ĠTele": 7490,
 "amel": 7491,
 "ĠWall": 7492,
 "tex": 7493,
 "ĠKh": 7494,
 "Ġexplains": 7495,
 "ĠReport": 7496,
 "Ġconnects": 7497,
 "Ġexcell": 7498,
 "Ġsalt": 7499,
 "iro": 7500,
 "oices": 7501,
 "ï¼": 7502,
 "Ġalle": 7503,
 "ĠWild": 7504,
 "Ġships": 7505,
 "Ġseasons": 7506,
 "ogy": 7507,
 "izz": 7508,
 "Ġknows": 7509,
 "Ġcontainer": 7510,
 "Which": 7511,
 "ĠExample": 7512,
 "Ġrandomly": 7513,
 "Ġcollections": 7514,
 "Ġremained": 7515,
 "Ġprincipal": 7516,
 "AG": 7517,
 "Note": 7518,
 "Ġfine": 7519,
 "ellect": 7520,
 "Ġvectors": 7521,
 "tery": 7522,
 "ĠRom": 7523,
 "ective": 7524,
 "Ġsubs": 7525,
 "cores": 7526,
 "Ġexperienced": 7527,
 "Ġdram": 7528,
 "Ð°Ð": 7529,
 "Ġethnic": 7530,
 "Ġcamera": 7531,
 "ĠPakistan": 7532,
 "rics": 7533,
 "ativity": 7534,
 "Ġpip": 7535,
 "Ġ`(": 7536,
 "Ġsuitable": 7537,
 "cules": 7538,
 "Ġthoughts": 7539,
 "Ġcris": 7540,
 "ĠQueen": 7541,
 "Ġofficer": 7542,
 "98": 7543,
 "\\\\": 7544,
 "tag": 7545,
 "Ġbridge": 7546,
 "ĠSci": 7547,
 "ersey": 7548,
 "Ġ(),": 7549,
 "ĠMach": 7550,
 "ĠWrit": 7551,
 "Ġexcess": 7552,
 "ograp": 7553,
 "resentation": 7554,
 "sql": 7555,
 "cyclop": 7556,
 "Ġft": 7557,
 "ĠImp": 7558,
 "allenge": 7559,
 "ubble": 7560,
 "Ġemissions": 7561,
 "Ġ1983": 7562,
 "Ġ1940": 7563,
 "alpha": 7564,
 "ĠMovie": 7565,
 "Ġpil": 7566,
 "Ġiniti": 7567,
 "Ġmys": 7568,
 "ideos": 7569,
 "default": 7570,
 "ĠExper": 7571,
 "Ġ1985": 7572,
 "Ġlengths": 7573,
 "Ġwebsites": 7574,
 "ucky": 7575,
 "Art": 7576,
 "Ġawarded": 7577,
 "xiety": 7578,
 "BS": 7579,
 "Calcul": 7580,
 "Hi": 7581,
 "Î±": 7582,
 "Ġmamm": 7583,
 "ilit": 7584,
 "ĠMAT": 7585,
 "osc": 7586,
 "ĠGame": 7587,
 "Ġparticle": 7588,
 "Ġlocations": 7589,
 "Ġextensive": 7590,
 "ennis": 7591,
 "western": 7592,
 "gi": 7593,
 "icit": 7594,
 "olk": 7595,
 "ĠTheory": 7596,
 "email": 7597,
 "Ġsections": 7598,
 "ĠJac": 7599,
 "earchers": 7600,
 "Ġtea": 7601,
 "ĠVari": 7602,
 "ampion": 7603,
 "Ġamounts": 7604,
 "ĠDetermine": 7605,
 "Ġhorse": 7606,
 "Ġglasses": 7607,
 "->": 7608,
 "greg": 7609,
 "ĠWord": 7610,
 "Ġexchange": 7611,
 "Ġ64": 7612,
 "Ġcoal": 7613,
 "Ġequals": 7614,
 "ĠWeek": 7615,
 "Ġessay": 7616,
 "Ġemotions": 7617,
 "return": 7618,
 "HP": 7619,
 "dr": 7620,
 "Ġtum": 7621,
 "inite": 7622,
 "hex": 7623,
 "ednes": 7624,
 "ima": 7625,
 "ĠNa": 7626,
 "Ġmanaged": 7627,
 "Ġdiscount": 7628,
 "Ġencounter": 7629,
 "Ġhappened": 7630,
 "Ġcritic": 7631,
 "ĠChem": 7632,
 "urer": 7633,
 "ĠLast": 7634,
 "ĠâĢ¦": 7635,
 "Ġcurriculum": 7636,
 "Ġcomputing": 7637,
 "Ġ1981": 7638,
 "ographical": 7639,
 "Ġsatell": 7640,
 "Ġmagnitude": 7641,
 "ĠSpeed": 7642,
 "bro": 7643,
 "times": 7644,
 "wing": 7645,
 "ÙĨ": 7646,
 "Ġsamples": 7647,
 "Ġhidden": 7648,
 "Ġislands": 7649,
 "ĠFund": 7650,
 "Ġtraffic": 7651,
 "shape": 7652,
 "Ġpaths": 7653,
 "ĠEdward": 7654,
 "IDE": 7655,
 "ĠFinally": 7656,
 "Ã³n": 7657,
 "ĠMassachusetts": 7658,
 "Home": 7659,
 "Ġtab": 7660,
 "Ġpiv": 7661,
 "Ġmm": 7662,
 "Ġshoot": 7663,
 "orem": 7664,
 "duction": 7665,
 "Ġsorting": 7666,
 "Ġclosely": 7667,
 "Ġopportunities": 7668,
 "olitan": 7669,
 "Ġmurder": 7670,
 "xx": 7671,
 "Ġtail": 7672,
 "Ġhorm": 7673,
 "ĠSep": 7674,
 "ader": 7675,
 "Ġvital": 7676,
 "Ġresidents": 7677,
 "ĠElizabeth": 7678,
 "Ġdangerous": 7679,
 "MP": 7680,
 "Ġpull": 7681,
 "Ġtoken": 7682,
 "istant": 7683,
 "ĠIns": 7684,
 "Ġdispl": 7685,
 "Ġpolic": 7686,
 "Ġpopulations": 7687,
 "Ġconstra": 7688,
 "ĠTurkish": 7689,
 "Ġfocused": 7690,
 "ĠNetwork": 7691,
 "'`": 7692,
 "Get": 7693,
 "Line": 7694,
 "Math": 7695,
 "Of": 7696,
 "isk": 7697,
 "omer": 7698,
 "ĠCro": 7699,
 "ĠHa": 7700,
 "ĠWhere": 7701,
 "riz": 7702,
 "aked": 7703,
 "Ġlisting": 7704,
 "Ġinstit": 7705,
 "match": 7706,
 "Ġ1979": 7707,
 "Ġlessons": 7708,
 "Ġobserved": 7709,
 "Ġimmune": 7710,
 "Ġperspective": 7711,
 "ĠNorwegian": 7712,
 "ĠSunday": 7713,
 "Ġsettlement": 7714,
 "Other": 7715,
 "Open": 7716,
 "Ġbrow": 7717,
 "irty": 7718,
 "ĠHind": 7719,
 "ibi": 7720,
 "Ġcreatures": 7721,
 "adecimal": 7722,
 "Ġinvolving": 7723,
 "ambig": 7724,
 "Ġexpressed": 7725,
 "ĠCoast": 7726,
 "Ġsubjects": 7727,
 "Ġrailway": 7728,
 "Ġneighborhood": 7729,
 "DS": 7730,
 "erial": 7731,
 "organ": 7732,
 "ĠLittle": 7733,
 "Ġsevent": 7734,
 "Ġformation": 7735,
 "Ġattacks": 7736,
 "ĠCommit": 7737,
 "Ġchildhood": 7738,
 "Ġapproaches": 7739,
 "Ġpossibly": 7740,
 "Char": 7741,
 "Ġoccurred": 7742,
 "Ġsalary": 7743,
 "Ġdynamic": 7744,
 "Posted": 7745,
 "ĠIllinois": 7746,
 "More": 7747,
 "Today": 7748,
 "width": 7749,
 "Ġmobile": 7750,
 "urd": 7751,
 "ĠCorn": 7752,
 "ĠPrem": 7753,
 "ĠMember": 7754,
 "Ġconvent": 7755,
 "claim": 7756,
 "iano": 7757,
 "Ġappointed": 7758,
 "Ġcrisis": 7759,
 "West": 7760,
 "mail": 7761,
 "Ġmaps": 7762,
 "Ġnor": 7763,
 "Ġ250": 7764,
 "separ": 7765,
 "ĠBase": 7766,
 "Ġneut": 7767,
 "ĠInput": 7768,
 "ansas": 7769,
 "Ġcloth": 7770,
 "Ġdiscipl": 7771,
 "ĠLee": 7772,
 "Ġ1987": 7773,
 "shire": 7774,
 "coln": 7775,
 "ĠMichigan": 7776,
 "Ġsegment": 7777,
 "ltk": 7778,
 "DP": 7779,
 "craft": 7780,
 "graph": 7781,
 "hus": 7782,
 "ked": 7783,
 "ĠÅ": 7784,
 "Ġfant": 7785,
 "Ġflex": 7786,
 "ĠAst": 7787,
 "ĠWhe": 7788,
 "Ġchronic": 7789,
 "Ġkg": 7790,
 "Ġelimin": 7791,
 "Ġconsidering": 7792,
 "Ġtranslated": 7793,
 "Ġbenefit": 7794,
 "Ġsymbols": 7795,
 "________________": 7796,
 "Ġathlet": 7797,
 "Python": 7798,
 "iy": 7799,
 "Â·": 7800,
 "Ġfoss": 7801,
 "Ġ\",": 7802,
 "Ġnearest": 7803,
 "Ġkit": 7804,
 "Ġbutter": 7805,
 "ĠAlbert": 7806,
 "Ġparish": 7807,
 "Ġeveryday": 7808,
 "Ġclearly": 7809,
 "ĠChristmas": 7810,
 "âĪĴ": 7811,
 "ĠNumbers": 7812,
 "Ġlandscape": 7813,
 "96": 7814,
 "ref": 7815,
 "Ġbits": 7816,
 "ĠThree": 7817,
 "Ġ65": 7818,
 "Ġpolice": 7819,
 "azing": 7820,
 "okes": 7821,
 "ATE": 7822,
 "Ġsupports": 7823,
 "ĠGreece": 7824,
 "Ġinhabitants": 7825,
 "aud": 7826,
 "gar": 7827,
 "Ġped": 7828,
 "Ġaren": 7829,
 "ĠHy": 7830,
 "ĠEconom": 7831,
 "ears": 7832,
 "Ġprison": 7833,
 "ĠArts": 7834,
 "Ġmassive": 7835,
 "Ġchemistry": 7836,
 "sequence": 7837,
 "Ġpurchase": 7838,
 "ĠStatistics": 7839,
 "Ġpollution": 7840,
 "Ġreversed": 7841,
 "-\\": 7842,
 "tree": 7843,
 "lem": 7844,
 "Ġnort": 7845,
 "Ġeld": 7846,
 "ĠSort": 7847,
 "ĠIran": 7848,
 "antly": 7849,
 "Ġlect": 7850,
 "Ġbutton": 7851,
 "Ġinfections": 7852,
 "digit": 7853,
 "digits": 7854,
 "Ġtreated": 7855,
 "ĠAND": 7856,
 "Ġtissue": 7857,
 "IP": 7858,
 "Ob": 7859,
 "Ñĥ": 7860,
 "onia": 7861,
 "Ġcensus": 7862,
 "Ġbass": 7863,
 "ĠAff": 7864,
 "Ġgrown": 7865,
 "ĠMonday": 7866,
 "Ġ1920": 7867,
 "Ġlisten": 7868,
 "Ġtraverse": 7869,
 "Ġ1972": 7870,
 "Ġ1978": 7871,
 "cosystem": 7872,
 "Ġgalax": 7873,
 "ednesday": 7874,
 "Frame": 7875,
 "uits": 7876,
 "Ġfib": 7877,
 "Ġunus": 7878,
 "ĠOtt": 7879,
 "ĠProte": 7880,
 "Ġkeyword": 7881,
 "Ġ\\\\": 7882,
 "Ġshowed": 7883,
 "Ġpolitics": 7884,
 "ĠSeries": 7885,
 "Ġfiltered": 7886,
 "Ġfruits": 7887,
 "Ġrecursively": 7888,
 "Ġgravity": 7889,
 "Ġcontemporary": 7890,
 "Ġsucceed": 7891,
 "eq": 7892,
 "oz": 7893,
 "erly": 7894,
 "Ġcert": 7895,
 "Ġstro": 7896,
 "racy": 7897,
 "ĠNOT": 7898,
 "Ġweap": 7899,
 "ĠCharl": 7900,
 "isequal": 7901,
 "Ġemp": 7902,
 "Ġcalculations": 7903,
 "Ġoperated": 7904,
 "Ġ1968": 7905,
 "Ġposts": 7906,
 "address": 7907,
 "Ġfeatured": 7908,
 "Ġdimension": 7909,
 "ĠGrade": 7910,
 "Ġconcentration": 7911,
 "Ġprominent": 7912,
 "ĠIterate": 7913,
 "person": 7914,
 "yard": 7915,
 "Ġtun": 7916,
 "Ġwra": 7917,
 "ĠMur": 7918,
 "Ġobj": 7919,
 "heses": 7920,
 "Ġ1971": 7921,
 "Ġscientist": 7922,
 "ĠUSA": 7923,
 "Ġflatten": 7924,
 "uses": 7925,
 "ĠCub": 7926,
 "Ġforced": 7927,
 "Ġvotes": 7928,
 "Ġalt": 7929,
 "Ġ37": 7930,
 "Ġbuck": 7931,
 "aws": 7932,
 "Ġpasses": 7933,
 "Ġdrama": 7934,
 "Ã¼r": 7935,
 "Ġdomestic": 7936,
 "92": 7937,
 "EL": 7938,
 "Where": 7939,
 "oir": 7940,
 "Ġ00": 7941,
 "itative": 7942,
 "Ġdot": 7943,
 "Ġseed": 7944,
 "oren": 7945,
 "arters": 7946,
 "Ġ1930": 7947,
 "ĠHead": 7948,
 "Ġcoins": 7949,
 "Ġ180": 7950,
 "Ġpassing": 7951,
 "oking": 7952,
 "Imagine": 7953,
 "Ġmagnetic": 7954,
 "Ġwalls": 7955,
 "Ġadjust": 7956,
 "Ġprepared": 7957,
 "97": 7958,
 "gre": 7959,
 "mic": 7960,
 "wan": 7961,
 "zen": 7962,
 "heit": 7963,
 "ĠWay": 7964,
 "ĠJud": 7965,
 "Ġtrains": 7966,
 "ĠProcess": 7967,
 "\",\"": 7968,
 "Ġrelation": 7969,
 "Ġexpansion": 7970,
 "Ġended": 7971,
 "Ġ1945": 7972,
 "Ġtraveling": 7973,
 "Ġbiological": 7974,
 "Ġarchae": 7975,
 "Ġmerged": 7976,
 "Cons": 7977,
 "TS": 7978,
 "TV": 7979,
 "sim": 7980,
 "Ø±": 7981,
 "Ġlake": 7982,
 "unique": 7983,
 "ĠPage": 7984,
 "ĠDise": 7985,
 "ained": 7986,
 "Ġshift": 7987,
 "ĠJersey": 7988,
 "Ġdisorders": 7989,
 "Ġspoken": 7990,
 "Ġsubsc": 7991,
 "Ġpresentation": 7992,
 "Ġflows": 7993,
 "Ġemployee": 7994,
 "Ġsteel": 7995,
 "Ġreligion": 7996,
 "Ġinspired": 7997,
 "Ġprocedure": 7998,
 "World": 7999,
 "ÏĢ": 8000,
 "inem": 8001,
 "ĠBab": 8002,
 "Ġintellect": 8003,
 "ĠSequ": 8004,
 "Ġobjective": 8005,
 "ahren": 8006,
 "Ġcombine": 8007,
 "Ġengineer": 8008,
 "ĠImport": 8009,
 "Ġkinds": 8010,
 "filename": 8011,
 "Ġincreasingly": 8012,
 "Che": 8013,
 "Med": 8014,
 "tario": 8015,
 "Ġcraft": 8016,
 "ĠPy": 8017,
 "arts": 8018,
 "Ġsecondary": 8019,
 "ÐµÐ": 8020,
 "Ġfailure": 8021,
 "().": 8022,
 "Jo": 8023,
 "cuss": 8024,
 "Ã¨": 8025,
 "Ġcognitive": 8026,
 "stein": 8027,
 "Ġnarrow": 8028,
 "Ġlose": 8029,
 "imination": 8030,
 "ĠMD": 8031,
 "estyle": 8032,
 "Ġ\")": 8033,
 "rence": 8034,
 "Ġpreced": 8035,
 "Ġcreative": 8036,
 "axis": 8037,
 "âĢĿ,": 8038,
 "Ġsmooth": 8039,
 "Ġshel": 8040,
 "Ġhumor": 8041,
 "Ġboxes": 8042,
 "Ġagricultural": 8043,
 "94": 8044,
 "erals": 8045,
 "anner": 8046,
 "stud": 8047,
 "Ġstem": 8048,
 "ĠFederal": 8049,
 "perial": 8050,
 "Ġoperates": 8051,
 "Ġsheet": 8052,
 "mathbb": 8053,
 "Ġgained": 8054,
 "cdot": 8055,
 "ĠOffice": 8056,
 "ĠÏĢ": 8057,
 "ixture": 8058,
 "ĠMedicine": 8059,
 "ahrenheit": 8060,
 "mid": 8061,
 "Ġbat": 8062,
 "Ġdf": 8063,
 "Ġthrow": 8064,
 "olar": 8065,
 "Ġpropos": 8066,
 "Ġmeat": 8067,
 "Ġrecording": 8068,
 "cii": 8069,
 "plicated": 8070,
 "Ġorganized": 8071,
 "Ġsignificance": 8072,
 "Ġcycl": 8073,
 "Ġsubstance": 8074,
 "Ġterritory": 8075,
 "Ġascending": 8076,
 "ĠColorado": 8077,
 "IG": 8078,
 "non": 8079,
 "ults": 8080,
 "ĠStory": 8081,
 "phal": 8082,
 "Ġknew": 8083,
 "Ġacting": 8084,
 "Ġactress": 8085,
 "Ġdecade": 8086,
 "Ġengaging": 8087,
 "Ġnormally": 8088,
 "Ã¶y": 8089,
 "ĠSystems": 8090,
 "Ġassigned": 8091,
 "Ġdrinking": 8092,
 ")+": 8093,
 "agues": 8094,
 "Ġreturning": 8095,
 "ĠChild": 8096,
 "Ġapple": 8097,
 "Ġcultures": 8098,
 "Ġmaintaining": 8099,
 "ĠCommunity": 8100,
 "District": 8101,
 "Ġmuseum": 8102,
 "âĢĭâĢĭ": 8103,
 "DB": 8104,
 "Every": 8105,
 "Mar": 8106,
 "Ġca": 8107,
 "Ġcab": 8108,
 "Ġfo": 8109,
 "Ġpaid": 8110,
 "amil": 8111,
 "ĠAuthor": 8112,
 "uts": 8113,
 "ĠField": 8114,
 "ĠEll": 8115,
 "Ġtweet": 8116,
 "Ġ42": 8117,
 "Ġtracks": 8118,
 "Ġmayor": 8119,
 "Ġargs": 8120,
 "ursday": 8121,
 "Ġ1977": 8122,
 "Ġvisible": 8123,
 "Ġpromote": 8124,
 "Ġfailed": 8125,
 "randint": 8126,
 "Ġsyntax": 8127,
 "Ġingred": 8128,
 "adelph": 8129,
 "IST": 8130,
 "Ġtheories": 8131,
 "Ġpunctuation": 8132,
 "ĠSquare": 8133,
 "ĠCard": 8134,
 "Ġsharing": 8135,
 "Ġfunctional": 8136,
 "cons": 8137,
 "Ġliber": 8138,
 "Ġclassification": 8139,
 "Ġattached": 8140,
 "apped": 8141,
 "Ġ1975": 8142,
 "Ġbroken": 8143,
 "Ġorganisms": 8144,
 "Ġrestrict": 8145,
 "brew": 8146,
 "Ġverb": 8147,
 "Ġdiameter": 8148,
 "Ġnations": 8149,
 "Ġnltk": 8150,
 "ĠNorm": 8151,
 "Ġjump": 8152,
 "Ġadvice": 8153,
 "ugby": 8154,
 "ãĢ": 8155,
 "error": 8156,
 "Ġfab": 8157,
 "Ġpool": 8158,
 "lets": 8159,
 "Ġstages": 8160,
 "igration": 8161,
 "ĠBack": 8162,
 "Then": 8163,
 "agrams": 8164,
 "ĠKnow": 8165,
 "Ġaccident": 8166,
 "Ġdividing": 8167,
 "Ġmarine": 8168,
 "Ġforests": 8169,
 "Ġadopted": 8170,
 "ji": 8171,
 "esh": 8172,
 "Ġinequ": 8173,
 "Ġdrop": 8174,
 "Ġthin": 8175,
 "Ġdele": 8176,
 "empty": 8177,
 "ighter": 8178,
 "Ġleaf": 8179,
 "ultip": 8180,
 "Ġvaluable": 8181,
 "Ġmodify": 8182,
 "Ġdraft": 8183,
 "eneath": 8184,
 "Ġkeeping": 8185,
 "Ġchemicals": 8186,
 "Ġcoordinate": 8187,
 "Ġhabitat": 8188,
 "adelphia": 8189,
 "Me": 8190,
 "try": 8191,
 "Ġsan": 8192,
 "Ġfashion": 8193,
 "angles": 8194,
 "Ġinterview": 8195,
 "Ġbaseball": 8196,
 "Ġcollected": 8197,
 "ĠComputer": 8198,
 "ĠVisual": 8199,
 "Ġhexadecimal": 8200,
 "cat": 8201,
 "cap": 8202,
 "free": 8203,
 "ĠTree": 8204,
 "ĠDescription": 8205,
 "pload": 8206,
 "Ġund": 8207,
 "ĠJim": 8208,
 "ĠJeff": 8209,
 "ĠYoung": 8210,
 "ĠThus": 8211,
 "Ġ55": 8212,
 "ĠUnit": 8213,
 "Ġadds": 8214,
 "Ġexploration": 8215,
 "Ġdescript": 8216,
 "scale": 8217,
 "ipping": 8218,
 "Ġrenowned": 8219,
 "Ġretrieve": 8220,
 "1000": 8221,
 "Co": 8222,
 "fish": 8223,
 "pa": 8224,
 "ycl": 8225,
 "arant": 8226,
 "arry": 8227,
 "ĠFour": 8228,
 "Ġbytes": 8229,
 "ĠOx": 8230,
 "Ġnotice": 8231,
 "ibl": 8232,
 "oven": 8233,
 "ĠEnd": 8234,
 "centage": 8235,
 "matic": 8236,
 "Ġdepression": 8237,
 "break": 8238,
 "Ġpowers": 8239,
 "AF": 8240,
 "Ev": 8241,
 "His": 8242,
 "Living": 8243,
 "ĠðĿĳ": 8244,
 "ĠSaf": 8245,
 "ulates": 8246,
 "Ġcomments": 8247,
 "Ġseeds": 8248,
 "ieval": 8249,
 "Ġperimeter": 8250,
 "Ġ52": 8251,
 "erman": 8252,
 "Ġelections": 8253,
 "uesday": 8254,
 "Ġacts": 8255,
 "Ġcharacterized": 8256,
 "ĠOntario": 8257,
 "istered": 8258,
 "ĠDistance": 8259,
 "ĠSyd": 8260,
 "Ġlegend": 8261,
 "Ġmanufacturing": 8262,
 "English": 8263,
 "OW": 8264,
 "Ġtens": 8265,
 "Ġspl": 8266,
 "Ġpup": 8267,
 "Ġlie": 8268,
 "olis": 8269,
 "that": 8270,
 "thur": 8271,
 "ĠHIV": 8272,
 "ibilities": 8273,
 "Ġpron": 8274,
 "Ġhandling": 8275,
 "Ġ1969": 8276,
 "Ġsuccessfully": 8277,
 "ĠContin": 8278,
 "oys": 8279,
 "Ġaw": 8280,
 "Ġsudden": 8281,
 "Ġment": 8282,
 "Ġmort": 8283,
 "stone": 8284,
 "iler": 8285,
 "Ġdelete": 8286,
 "pling": 8287,
 "Ġchampions": 8288,
 "Ä±k": 8289,
 "Ġoptional": 8290,
 "Ġtrial": 8291,
 "Ġwalking": 8292,
 "Ġadjacent": 8293,
 "ĠInitialize": 8294,
 "Ġexcellent": 8295,
 "ambiguation": 8296,
 "Ġcube": 8297,
 "Ġfaces": 8298,
 "Ġfractions": 8299,
 "aser": 8300,
 "Ġthorough": 8301,
 "ĠTimes": 8302,
 "Ġ((": 8303,
 "âĢĺ": 8304,
 "pear": 8305,
 "Ġnotable": 8306,
 "Ġobvious": 8307,
 "Ġappend": 8308,
 "aze": 8309,
 "Ġstanding": 8310,
 "Ġmonthly": 8311,
 "Ġmovements": 8312,
 "Ġbrand": 8313,
 "Ġmechanical": 8314,
 "Ġgrades": 8315,
 "ĠFrancisco": 8316,
 "Ġhusband": 8317,
 "ĠCommittee": 8318,
 "IR": 8319,
 "hop": 8320,
 "oor": 8321,
 "parser": 8322,
 "icular": 8323,
 "stood": 8324,
 "ĠSand": 8325,
 "Ġstim": 8326,
 "odd": 8327,
 "Ġarc": 8328,
 "Ġpermut": 8329,
 "Ġscr": 8330,
 "Ġskill": 8331,
 "Ġ1964": 8332,
 "ĠDetailed": 8333,
 "Ġconcerned": 8334,
 "ĠCSV": 8335,
 "Build": 8336,
 "found": 8337,
 "lock": 8338,
 "Ġnull": 8339,
 "igure": 8340,
 "Ä±r": 8341,
 "Ġassociation": 8342,
 "ĠDefinition": 8343,
 "ĠLincoln": 8344,
 "App": 8345,
 "Set": 8346,
 "athe": 8347,
 "Ġcash": 8348,
 "Ġpenc": 8349,
 "asp": 8350,
 "rot": 8351,
 "eld": 8352,
 "imeters": 8353,
 "Ġtrust": 8354,
 "Ġcommunicate": 8355,
 "reshold": 8356,
 "Ġfreedom": 8357,
 "EC": 8358,
 "]`": 8359,
 "sent": 8360,
 "including": 8361,
 "Ġpione": 8362,
 "Ġorb": 8363,
 "ĠLove": 8364,
 "oster": 8365,
 "convert": 8366,
 "crets": 8367,
 "Ġclaims": 8368,
 "Ġawareness": 8369,
 "Jan": 8370,
 "tim": 8371,
 "orig": 8372,
 "Ġfelt": 8373,
 "rovers": 8374,
 "std": 8375,
 "iled": 8376,
 "ĠMount": 8377,
 "Ġtermin": 8378,
 "ĠManagement": 8379,
 "Ġfloating": 8380,
 "Ġextreme": 8381,
 "Plot": 8382,
 "Ġrecommended": 8383,
 "Ġdecorator": 8384,
 "Ġrhyth": 8385,
 "ĠMicrosoft": 8386,
 "gener": 8387,
 "mers": 8388,
 "à¯": 8389,
 "Ġaid": 8390,
 "Ġecosystem": 8391,
 "ĠIV": 8392,
 "ĠMic": 8393,
 "ĠFed": 8394,
 "ĠNature": 8395,
 "Ġrational": 8396,
 "config": 8397,
 "inson": 8398,
 "Ġarrange": 8399,
 "\"\"\"": 8400,
 "Ġsequences": 8401,
 "ĠMean": 8402,
 "Ġinjuries": 8403,
 "ĠLearn": 8404,
 "Ġviolence": 8405,
 "rastructure": 8406,
 "grade": 8407,
 "Ġvertical": 8408,
 "dx": 8409,
 "Ġà¦": 8410,
 "ela": 8411,
 "ĠSpecial": 8412,
 "Ġconsole": 8413,
 "ĠFriday": 8414,
 "ĠGir": 8415,
 "apple": 8416,
 "Ġtwenty": 8417,
 "ooking": 8418,
 "hentic": 8419,
 "Ġfounder": 8420,
 "Ġhighway": 8421,
 "vironments": 8422,
 "Ġmuscles": 8423,
 "Ġdriver": 8424,
 "loads": 8425,
 "Ġofficially": 8426,
 "Ġoffered": 8427,
 "Ġneighbour": 8428,
 "ĠPhiladelphia": 8429,
 "Ġmolecules": 8430,
 "Ġearned": 8431,
 "Ġtitles": 8432,
 "Id": 8433,
 "cell": 8434,
 "rick": 8435,
 "Ñĭ": 8436,
 "Ġfibonacci": 8437,
 "Ġwet": 8438,
 "Ġnob": 8439,
 "Ġnick": 8440,
 "ĠFull": 8441,
 "oston": 8442,
 "ensed": 8443,
 "Ġagent": 8444,
 "arsh": 8445,
 "Ġtransmission": 8446,
 "ĠAsh": 8447,
 "Ġ1974": 8448,
 "Ġversions": 8449,
 "Ġcourses": 8450,
 "Ġmultiplying": 8451,
 "Ġwarming": 8452,
 "Populated": 8453,
 "ĠDigital": 8454,
 "burgh": 8455,
 "local": 8456,
 "nam": 8457,
 "vard": 8458,
 "Ġdust": 8459,
 "Ġdreams": 8460,
 "Ġpros": 8461,
 "ĠLoad": 8462,
 "Ġraw": 8463,
 "iented": 8464,
 "tenance": 8465,
 "Ġextended": 8466,
 "Ġhighlight": 8467,
 "reme": 8468,
 "Ġissued": 8469,
 "Ġbranches": 8470,
 "Ġvegetables": 8471,
 "Ġadministrative": 8472,
 "ĠSydney": 8473,
 "Gu": 8474,
 "td": 8475,
 "Ġpure": 8476,
 "ingly": 8477,
 "edu": 8478,
 "ican": 8479,
 "ĠTerm": 8480,
 "ĠDyn": 8481,
 "achel": 8482,
 "Ġrooms": 8483,
 "Ġpolar": 8484,
 "ĠOnly": 8485,
 "Ġsitting": 8486,
 "Ġdestination": 8487,
 "ĠDemocratic": 8488,
 "Ġscholars": 8489,
 "Ġcandidate": 8490,
 "cyclopedia": 8491,
 "Ac": 8492,
 "Text": 8493,
 "req": 8494,
 "Ġsell": 8495,
 "Ġvan": 8496,
 "ĠRo": 8497,
 "ĠNatural": 8498,
 "Ġdoctors": 8499,
 "iveness": 8500,
 "Ġspeaking": 8501,
 "Ġtrad": 8502,
 "Ġprev": 8503,
 "Ġcrew": 8504,
 "Ġending": 8505,
 "ĠCentre": 8506,
 "Ġlowest": 8507,
 "ĠPolish": 8508,
 "Ġdiscussed": 8509,
 "Ġfeelings": 8510,
 "aturally": 8511,
 "Ġvocabulary": 8512,
 "ĠStandard": 8513,
 "'}": 8514,
 "Mon": 8515,
 "Top": 8516,
 "bability": 8517,
 "ns": 8518,
 "vol": 8519,
 "Ġbread": 8520,
 "Ġnit": 8521,
 "iration": 8522,
 "Ġproof": 8523,
 "ĠHun": 8524,
 "Ġtwe": 8525,
 "Ġdistances": 8526,
 "Ġassessment": 8527,
 "Ġescape": 8528,
 "ĠExtract": 8529,
 "Ġfascinating": 8530,
 "distance": 8531,
 "pal": 8532,
 "rating": 8533,
 "sor": 8534,
 "Ġreform": 8535,
 "ĠSat": 8536,
 "Ġorg": 8537,
 "ĠNight": 8538,
 "ĠNob": 8539,
 "Ġfeat": 8540,
 "Ġfinish": 8541,
 "agonal": 8542,
 "Ġagriculture": 8543,
 "Ġproportion": 8544,
 "Py": 8545,
 "SA": 8546,
 "frame": 8547,
 "town": 8548,
 "Ġlatter": 8549,
 "Ġsharp": 8550,
 "Ġsector": 8551,
 "Ġencl": 8552,
 "Ġsignals": 8553,
 "being": 8554,
 "Ġvolcan": 8555,
 "Ġbiology": 8556,
 "Ġaddresses": 8557,
 "disambiguation": 8558,
 "ĠCorporation": 8559,
 "Ġmechanics": 8560,
 "Ġsemi": 8561,
 "ĠConstitution": 8562,
 "igenous": 8563,
 "Ġadvantage": 8564,
 "Ġpolicies": 8565,
 "inth": 8566,
 "Ġcodes": 8567,
 "Ġanxiety": 8568,
 "ivation": 8569,
 "Ġvowels": 8570,
 "Ġwasn": 8571,
 "Ġatoms": 8572,
 "creen": 8573,
 "issance": 8574,
 "Ġjustice": 8575,
 "Ġreader": 8576,
 "ropolitan": 8577,
 "Ġaccepted": 8578,
 "Ġfalls": 8579,
 "Ġcontrolled": 8580,
 "Oct": 8581,
 "del": 8582,
 "âĤ": 8583,
 "Ġbought": 8584,
 "ether": 8585,
 "ĠFair": 8586,
 "ĠEth": 8587,
 "ĠEff": 8588,
 "Ġrig": 8589,
 "Ġcapable": 8590,
 "Ġmarriage": 8591,
 "ennes": 8592,
 "ervative": 8593,
 "Ġmunicipalities": 8594,
 "Ġearthqu": 8595,
 "Ġacquired": 8596,
 "ĠMountains": 8597,
 ")\\": 8598,
 "300": 8599,
 "ih": 8600,
 "illy": 8601,
 "ĠTO": 8602,
 "else": 8603,
 "ĠSup": 8604,
 "ulner": 8605,
 "Ġvent": 8606,
 "ĠEver": 8607,
 "Ġresident": 8608,
 "Ġperman": 8609,
 "Ġ600": 8610,
 "Ġclassified": 8611,
 "current": 8612,
 "Ġofficials": 8613,
 "Under": 8614,
 "Ġabsorb": 8615,
 "Ġindependence": 8616,
 "Ġsubtraction": 8617,
 "metric": 8618,
 "Print": 8619,
 "ĠForeward": 8620,
 "Ġhonor": 8621,
 "ĠPrize": 8622,
 ":\",": 8623,
 "Ġton": 8624,
 "Ġbones": 8625,
 "icip": 8626,
 "ĠAwards": 8627,
 "ĠPDF": 8628,
 "Ġhero": 8629,
 "Ġ49": 8630,
 "Ġmovies": 8631,
 "Ġpublication": 8632,
 "ĠEnvironmental": 8633,
 "ĠKorea": 8634,
 "Ġcrops": 8635,
 "Ġrenew": 8636,
 "Ġconqu": 8637,
 "Ġconcrete": 8638,
 "Ġweigh": 8639,
 "Ġhaz": 8640,
 "ignment": 8641,
 "Ġcommission": 8642,
 "ĠAsian": 8643,
 "Ġordered": 8644,
 "Ġchecking": 8645,
 "remove": 8646,
 "ĠInstead": 8647,
 "Ġreviews": 8648,
 "Ġinfluenced": 8649,
 "Ġphotograph": 8650,
 "Ġcontribute": 8651,
 "Ġcloser": 8652,
 "Ġconcerns": 8653,
 "Ġslowly": 8654,
 "Ġprepare": 8655,
 "Ġrapidly": 8656,
 "Ġaccomplish": 8657,
 "Ġconsequences": 8658,
 "El": 8659,
 "Par": 8660,
 "lades": 8661,
 "Ġtur": 8662,
 "elesc": 8663,
 "ulating": 8664,
 "Ġwhites": 8665,
 "ĠDownload": 8666,
 "Ġchick": 8667,
 "ĠĠĠĠĠĠĠĠĠ": 8668,
 "Ġparties": 8669,
 "Ġ[(": 8670,
 "Ġrecip": 8671,
 "2023": 8672,
 "ĠComb": 8673,
 "Ġexposed": 8674,
 "ĠExamples": 8675,
 "Ġincred": 8676,
 "Ġ1967": 8677,
 "Ġheads": 8678,
 "ĠPrice": 8679,
 "Ġgeometry": 8680,
 "iosity": 8681,
 "ĠProgramming": 8682,
 "Ġfictional": 8683,
 "IA": 8684,
 "bot": 8685,
 "bec": 8686,
 "source": 8687,
 "Ġcryst": 8688,
 "Ġpy": 8689,
 "Ġdental": 8690,
 "Ġhab": 8691,
 "Ġgentle": 8692,
 "ĠWis": 8693,
 "ĠChief": 8694,
 "Ġedit": 8695,
 "ATION": 8696,
 "month": 8697,
 "Ġflower": 8698,
 "span": 8699,
 "ĠCarl": 8700,
 "Ġpotentially": 8701,
 "Ġtutorial": 8702,
 "ioxide": 8703,
 "({": 8704,
 "mond": 8705,
 "Ñı": 8706,
 "erry": 8707,
 "anes": 8708,
 "ĠAP": 8709,
 "ĠPot": 8710,
 "query": 8711,
 "ĠEp": 8712,
 "Ġretired": 8713,
 "ĠOpt": 8714,
 "ulture": 8715,
 "Ġabbre": 8716,
 "Ġdepart": 8717,
 "ĠEquations": 8718,
 "ĠExpress": 8719,
 "Ġpurchased": 8720,
 "Ġcompiler": 8721,
 "PU": 8722,
 "Spe": 8723,
 "bed": 8724,
 "jango": 8725,
 "Ġaqu": 8726,
 "ori": 8727,
 "eless": 8728,
 "Ġshif": 8729,
 "ĠJr": 8730,
 "ĠKen": 8731,
 "Ġscra": 8732,
 "ĠChallenge": 8733,
 "Ġpartner": 8734,
 "ranean": 8735,
 "ĠMaria": 8736,
 "letter": 8737,
 "Ġlimits": 8738,
 "Ġjobs": 8739,
 "ĠVictoria": 8740,
 "onymous": 8741,
 "CR": 8742,
 "vas": 8743,
 "Ġsight": 8744,
 "isa": 8745,
 "ito": 8746,
 "omers": 8747,
 "ĠTable": 8748,
 "elly": 8749,
 "uther": 8750,
 "umes": 8751,
 "ĠMike": 8752,
 "ĠBern": 8753,
 "Ġconvey": 8754,
 "ĠRights": 8755,
 "ĠLight": 8756,
 "ourse": 8757,
 "ects": 8758,
 "Ġcontrovers": 8759,
 "nections": 8760,
 "Ġapplying": 8761,
 "Ġagency": 8762,
 "ĠAdv": 8763,
 "ĠAdminist": 8764,
 "Ġkept": 8765,
 "à¤¾": 8766,
 "Ġoffering": 8767,
 "Ġwildlife": 8768,
 "ĠTimer": 8769,
 "Ġbattery": 8770,
 "Ġvirtual": 8771,
 "Ġemergency": 8772,
 "ĠðŁĳ": 8773,
 "Ġholiday": 8774,
 "2000": 8775,
 "vals": 8776,
 "yes": 8777,
 "ĠFamily": 8778,
 "ĠLim": 8779,
 "Ġspin": 8780,
 "ĠAnton": 8781,
 "Ġmatrices": 8782,
 "Ġremark": 8783,
 "Ġremote": 8784,
 "ĠCommand": 8785,
 "Therefore": 8786,
 "Ġresponsibility": 8787,
 "ĠÂ»": 8788,
 "ĠMaths": 8789,
 "Ġcutting": 8790,
 "Ġparticipants": 8791,
 "Ġsustainable": 8792,
 "dist": 8793,
 "rary": 8794,
 "target": 8795,
 "à²": 8796,
 "Ġcrypt": 8797,
 "itzer": 8798,
 "ĠSanta": 8799,
 "ading": 8800,
 "Ġshot": 8801,
 "ĠStan": 8802,
 "Ġmeter": 8803,
 "Ġ1973": 8804,
 "attrib": 8805,
 "counts": 8806,
 "ĠÂ£": 8807,
 "ĠObject": 8808,
 "Ġfighting": 8809,
 "Ġgallons": 8810,
 "Rel": 8811,
 "Ref": 8812,
 "rates": 8813,
 "Ġtons": 8814,
 "ani": 8815,
 "Ġstated": 8816,
 "ulas": 8817,
 "ĠPLAINFORMAT": 8818,
 "ador": 8819,
 "Ġenum": 8820,
 "Ġtrouble": 8821,
 "Ġcomma": 8822,
 "Ġgrace": 8823,
 "Ġengage": 8824,
 "Ġgreatly": 8825,
 "Ġholding": 8826,
 "ĠJews": 8827,
 "ĠHistoric": 8828,
 "ĠmacOS": 8829,
 "Ġenhance": 8830,
 "*(": 8831,
 "DD": 8832,
 "Key": 8833,
 "[-": 8834,
 "east": 8835,
 "eros": 8836,
 "atal": 8837,
 "Ġlots": 8838,
 "uten": 8839,
 "Ġstick": 8840,
 "Ġarms": 8841,
 "Ġgenerator": 8842,
 "Ġflask": 8843,
 "insula": 8844,
 "ĠIndust": 8845,
 "Ġarrived": 8846,
 "Ġstatistical": 8847,
 "Ġexecutive": 8848,
 "400": 8849,
 "Av": 8850,
 "Add": 8851,
 "MI": 8852,
 "ucc": 8853,
 "yan": 8854,
 "Ùĩ": 8855,
 "err": 8856,
 "sey": 8857,
 "ĠBell": 8858,
 "illion": 8859,
 "ĠNav": 8860,
 "ĠLater": 8861,
 "hess": 8862,
 "Ġmusician": 8863,
 "Ġcalories": 8864,
 "Ġcircul": 8865,
 "Ġphenomenon": 8866,
 "Background": 8867,
 "ĠSciences": 8868,
 "eor": 8869,
 "Ġsarc": 8870,
 "Ġinher": 8871,
 "Ġdb": 8872,
 "elest": 8873,
 "Ġchair": 8874,
 "ĠJones": 8875,
 "Inter": 8876,
 "Ġcarefully": 8877,
 "Ġexamine": 8878,
 "ĠPhilipp": 8879,
 "Ġalgebraic": 8880,
 "link": 8881,
 "|-": 8882,
 "Ġwis": 8883,
 "Ġpig": 8884,
 "Ġdream": 8885,
 "ĠTake": 8886,
 "igma": 8887,
 "Ġven": 8888,
 "aret": 8889,
 "Ġsphere": 8890,
 "ĠContext": 8891,
 "Ġpover": 8892,
 "ymph": 8893,
 "Ġsuggested": 8894,
 "Ġliterary": 8895,
 "Ġsufficient": 8896,
 "ĠLegisl": 8897,
 "normal": 8898,
 "Ġinsects": 8899,
 ")?": 8900,
 "MA": 8901,
 "wind": 8902,
 "write": 8903,
 "çļ": 8904,
 "Ġtags": 8905,
 "Ġcul": 8906,
 "ĠTreat": 8907,
 "ĠMajor": 8908,
 "access": 8909,
 "Ġrub": 8910,
 "ĠAlgorithm": 8911,
 "Ġimplemented": 8912,
 "Ġ1965": 8913,
 "Construct": 8914,
 "Ġboundary": 8915,
 "ĠBroad": 8916,
 "Ġnewspapers": 8917,
 "ĠBusiness": 8918,
 "Ġsoccer": 8919,
 "Ġinstitutions": 8920,
 "'))": 8921,
 "+\\": 8922,
 "93": 8923,
 "oons": 8924,
 "ĺħ": 8925,
 "Ġlambda": 8926,
 "eting": 8927,
 "Ġgiant": 8928,
 "ĠMah": 8929,
 "ĠLiter": 8930,
 "plt": 8931,
 "Ġenvironments": 8932,
 "ĠReal": 8933,
 "Ġreduction": 8934,
 "Ġimproved": 8935,
 "ĠAmazon": 8936,
 "Ġpalindrome": 8937,
 "Ġpoverty": 8938,
 "\"),": 8939,
 "FF": 8940,
 "Ġahead": 8941,
 "aters": 8942,
 "Ġsed": 8943,
 "iminal": 8944,
 "othe": 8945,
 "Ġbear": 8946,
 "ĠNaz": 8947,
 "ictionary": 8948,
 "Ġacres": 8949,
 "Ġdescribing": 8950,
 "Ġfarmer": 8951,
 "Ġegg": 8952,
 "ominator": 8953,
 "Geography": 8954,
 "Ġstruggle": 8955,
 "Author": 8956,
 "Sort": 8957,
 "Ġtro": 8958,
 "Ġsail": 8959,
 "ĠTurn": 8960,
 "ĠDar": 8961,
 "Ġouter": 8962,
 "ĠVen": 8963,
 "Ġrocks": 8964,
 "Ġdesert": 8965,
 "Ġoperators": 8966,
 "Ġconfused": 8967,
 "ĠResp": 8968,
 "Ġrisks": 8969,
 "ĠStudio": 8970,
 "Ġintroduce": 8971,
 "ĠRegion": 8972,
 "aturday": 8973,
 "Just": 8974,
 "bu": 8975,
 "lik": 8976,
 "Ġsick": 8977,
 "orus": 8978,
 "Ġdioxide": 8979,
 "imals": 8980,
 "Ġseats": 8981,
 "atern": 8982,
 "ĠChange": 8983,
 "Ġapparent": 8984,
 "Ġreaders": 8985,
 "Ġorigins": 8986,
 "ĠPlace": 8987,
 "Ġcrime": 8988,
 "ĠMonth": 8989,
 "Ġexecution": 8990,
 "Ġcomposer": 8991,
 "Ġbrings": 8992,
 "nesota": 8993,
 "ĠDuke": 8994,
 "Ġhorizontal": 8995,
 "'),": 8996,
 "(*": 8997,
 "Dis": 8998,
 "GB": 8999,
 "^(": 9000,
 "diff": 9001,
 "ho": 9002,
 "mir": 9003,
 "ÑĮ": 9004,
 "eries": 9005,
 "atin": 9006,
 "Ġfell": 9007,
 "Ġpapers": 9008,
 "Ġmos": 9009,
 "Ġtoxic": 9010,
 "otion": 9011,
 "ĠBridge": 9012,
 "ĠBoston": 9013,
 "Ġconclude": 9014,
 "Ġshut": 9015,
 "ogram": 9016,
 "ĠStr": 9017,
 "prefix": 9018,
 "Ġimpacts": 9019,
 "Ġphotos": 9020,
 "Ġintegrated": 9021,
 "Select": 9022,
 "Ġsurvive": 9023,
 "Ġpsychology": 9024,
 "largest": 9025,
 "ĠÂłĠÂłĠÂłĠÂł": 9026,
 "ĠâīĪ": 9027,
 ",\\": 9028,
 "Test": 9029,
 "ugh": 9030,
 "heastern": 9031,
 "ĠAC": 9032,
 "quad": 9033,
 "Ġuniform": 9034,
 "Ġkill": 9035,
 "ultane": 9036,
 "acters": 9037,
 "Ġunderlying": 9038,
 "Ġthanks": 9039,
 "ĠProper": 9040,
 "Ġtransition": 9041,
 "Ġmetres": 9042,
 "Ġdipl": 9043,
 "Ġelectrons": 9044,
 "ĠIndepend": 9045,
 "ursor": 9046,
 "Ġsupporting": 9047,
 "Ġencoding": 9048,
 "Ġgenes": 9049,
 "ĠHighway": 9050,
 "Ġfacilities": 9051,
 "III": 9052,
 "Ġadministration": 9053,
 "Ġdecrease": 9054,
 "Ġcollabor": 9055,
 "çļĦ": 9056,
 "\").": 9057,
 "Date": 9058,
 "XT": 9059,
 "hav": 9060,
 "tensor": 9061,
 "Ġox": 9062,
 "Ġpix": 9063,
 "ashes": 9064,
 "Ġnice": 9065,
 "una": 9066,
 "Ġoral": 9067,
 "Ġcomedy": 9068,
 "Ġru": 9069,
 "Ġshall": 9070,
 "Ġplug": 9071,
 "Ġquiet": 9072,
 "Ġ72": 9073,
 "Ġbelie": 9074,
 "Ġaccessible": 9075,
 "Ġsyndrome": 9076,
 "ĠReading": 9077,
 "ĠProblems": 9078,
 "Introduction": 9079,
 "Ġleadership": 9080,
 "ĠCambridge": 9081,
 "Current": 9082,
 "elect": 9083,
 "zero": 9084,
 "era": 9085,
 "status": 9086,
 "ila": 9087,
 "ĠSus": 9088,
 "Ġju": 9089,
 "Ġjazz": 9090,
 "ĠĠĠĠĠĠĠĠĠĠĠĠĠĠĠĠĠĠĠ": 9091,
 "Ġdiss": 9092,
 "Ġcoin": 9093,
 "Ġcontained": 9094,
 "Ġtexts": 9095,
 "Ġmeasuring": 9096,
 "Ġfootballer": 9097,
 "Ġprotected": 9098,
 "ĠFinn": 9099,
 "Ġrectangular": 9100,
 "ĠNether": 9101,
 "Ġinnovative": 9102,
 "Ġroughly": 9103,
 "ifferent": 9104,
 "150": 9105,
 "HS": 9106,
 "PT": 9107,
 "}^": 9108,
 "esity": 9109,
 "Ġmir": 9110,
 "otics": 9111,
 "Ġvideos": 9112,
 "ĠHot": 9113,
 "Ġalter": 9114,
 "ĠWal": 9115,
 "Ġchrom": 9116,
 "urname": 9117,
 "phant": 9118,
 "mediate": 9119,
 "Ġauthority": 9120,
 "ĠPrevious": 9121,
 "ĠâĪĴ": 9122,
 "ĠSubject": 9123,
 "Ġinstruments": 9124,
 "Em": 9125,
 "di": 9126,
 "dep": 9127,
 "Ġselling": 9128,
 "ascii": 9129,
 "Ġnan": 9130,
 "ĠAgricult": 9131,
 "ĠSplit": 9132,
 "Ġforget": 9133,
 "ĠBah": 9134,
 "ĠFire": 9135,
 "ĠNon": 9136,
 "Ġ`.": 9137,
 "agers": 9138,
 "Ġ39": 9139,
 "duplic": 9140,
 "Ġspan": 9141,
 "ribution": 9142,
 "Ġgrams": 9143,
 "Ġliters": 9144,
 "ĠOrder": 9145,
 "Ġ1948": 9146,
 "Ġadvoc": 9147,
 "Ġexplained": 9148,
 "ĠCommunic": 9149,
 "instein": 9150,
 "Ġwait": 9151,
 "Ġtaste": 9152,
 "ĠReturns": 9153,
 "info": 9154,
 "ĠÄ°": 9155,
 "OC": 9156,
 "city": 9157,
 "hash": 9158,
 "ni": 9159,
 "Ġcoding": 9160,
 "asm": 9161,
 "urric": 9162,
 "Ġoranges": 9163,
 "ĠEle": 9164,
 "ĠNeb": 9165,
 "Ġcalling": 9166,
 "Ġ1966": 9167,
 "Ġpresents": 9168,
 "Ġ},": 9169,
 "Problem": 9170,
 "Ġsettings": 9171,
 "Count": 9172,
 "FA": 9173,
 "Mus": 9174,
 "foot": 9175,
 "eras": 9176,
 "Ġsession": 9177,
 "Ġbeneath": 9178,
 "Ġgone": 9179,
 "unte": 9180,
 "ching": 9181,
 "ĠCall": 9182,
 "this": 9183,
 "ceived": 9184,
 "otions": 9185,
 "abil": 9186,
 "Ġtrained": 9187,
 "ĠAnother": 9188,
 "('/": 9189,
 "anna": 9190,
 "Ġremainder": 9191,
 "Ġoriginated": 9192,
 "Ġgraphs": 9193,
 "Ġfacing": 9194,
 "Ġregarded": 9195,
 "Ġvisitors": 9196,
 "Ġencourage": 9197,
 "Ġjudge": 9198,
 "/(": 9199,
 "Men": 9200,
 "pers": 9201,
 "yal": 9202,
 "zy": 9203,
 "Ġbio": 9204,
 "Ġbronze": 9205,
 "icious": 9206,
 "imately": 9207,
 "ĠNative": 9208,
 "Ġelevation": 9209,
 "ĠHebrew": 9210,
 "akespe": 9211,
 "ifications": 9212,
 "valu": 9213,
 "Ġdiagram": 9214,
 "Ġdiscr": 9215,
 "ĠJohnson": 9216,
 "Ġfriendly": 9217,
 "Ġturning": 9218,
 "Ġsunlight": 9219,
 "iterranean": 9220,
 "Ġverify": 9221,
 "Ġcoastal": 9222,
 "Ġchallenging": 9223,
 "Ġincorrect": 9224,
 "Ġsql": 9225,
 "Ġspiritual": 9226,
 ".'": 9227,
 "language": 9228,
 "uv": 9229,
 "arks": 9230,
 "ouri": 9231,
 "Ġdut": 9232,
 "Ġlingu": 9233,
 "abs": 9234,
 "employ": 9235,
 "ocracy": 9236,
 "Ġ38": 9237,
 "Ġ44": 9238,
 "Ġdoors": 9239,
 "Ġcompounds": 9240,
 "awa": 9241,
 "Ġmaintenance": 9242,
 "rane": 9243,
 "Ġdriven": 9244,
 "Ġseeing": 9245,
 "Ġdelim": 9246,
 "Comput": 9247,
 "ĠAmong": 9248,
 "Ġdiscussing": 9249,
 "Ġfarmers": 9250,
 "Ġdeviation": 9251,
 "Ġnavigate": 9252,
 "separated": 9253,
 ")|": 9254,
 "Download": 9255,
 "ste": 9256,
 "utor": 9257,
 "ĠBat": 9258,
 "opes": 9259,
 "ĠEarly": 9260,
 "Ġatomic": 9261,
 "area": 9262,
 "Ġclock": 9263,
 "Ġfolk": 9264,
 "Ġunderstood": 9265,
 "Ġnoise": 9266,
 "Ġtransformation": 9267,
 "Ġbasics": 9268,
 "ĠPrince": 9269,
 "Ġhardware": 9270,
 "ĠMedia": 9271,
 "Ġentirely": 9272,
 "Ġuppercase": 9273,
 "objects": 9274,
 "Solve": 9275,
 "ĠGolden": 9276,
 "ĠBuddh": 9277,
 "Ġunusual": 9278,
 "ĠDisease": 9279,
 "FC": 9280,
 "Scient": 9281,
 "author": 9282,
 "gg": 9283,
 "kg": 9284,
 "lights": 9285,
 "zant": 9286,
 "Ġsam": 9287,
 "ĠTay": 9288,
 "ivate": 9289,
 "ĠSentence": 9290,
 "iger": 9291,
 "Ġorbit": 9292,
 "ĠFar": 9293,
 "Ġarbit": 9294,
 "Ġenem": 9295,
 "Ġscul": 9296,
 "2021": 9297,
 "','": 9298,
 "ĠSelect": 9299,
 "Ġentity": 9300,
 "Ġoutputs": 9301,
 "Ġgrows": 9302,
 "Ġlayers": 9303,
 "Ġexecute": 9304,
 "Ġroads": 9305,
 "ĠMexican": 9306,
 "Bel": 9307,
 "EY": 9308,
 "dy": 9309,
 "doc": 9310,
 "grad": 9311,
 "ql": 9312,
 "Ġske": 9313,
 "strip": 9314,
 "Ġnaturally": 9315,
 "olph": 9316,
 "amma": 9317,
 "Ġgro": 9318,
 "ĠCross": 9319,
 "ĠWednesday": 9320,
 "dule": 9321,
 "ĠThanks": 9322,
 "agnetic": 9323,
 "ĠRegister": 9324,
 "Ġdebate": 9325,
 "ROM": 9326,
 "Ġcollaboration": 9327,
 "Ġclinical": 9328,
 "ĠFunctions": 9329,
 "Ġbrowser": 9330,
 "ĠNetherlands": 9331,
 "Ġsculpt": 9332,
 "lig": 9333,
 "itud": 9334,
 "ĠSel": 9335,
 "Ġstable": 9336,
 "ĠCreek": 9337,
 "andon": 9338,
 "ĠUt": 9339,
 "Ġresol": 9340,
 "Ġnewly": 9341,
 "Ġupd": 9342,
 "ĠArm": 9343,
 "Ġtyping": 9344,
 "irds": 9345,
 "Ġsearching": 9346,
 "amentals": 9347,
 "positive": 9348,
 "Ġreducing": 9349,
 "true": 9350,
 "Ġcapture": 9351,
 "Ġefficiently": 9352,
 "ĠBerlin": 9353,
 "ĠEvents": 9354,
 "Ġderivative": 9355,
 "Ġnutrients": 9356,
 "%,": 9357,
 "800": 9358,
 "ko": 9359,
 "rs": 9360,
 "herent": 9361,
 "onto": 9362,
 "Ġpra": 9363,
 "ĠEdition": 9364,
 "Ġoutcome": 9365,
 "ften": 9366,
 "Ġoperate": 9367,
 "Ġinfrastructure": 9368,
 "ĠTeam": 9369,
 "ĠInstructions": 9370,
 "Ġfrequent": 9371,
 "ammad": 9372,
 "Ġaccounts": 9373,
 "Ġclosest": 9374,
 "Ġdeclared": 9375,
 "Ġoccurrence": 9376,
 "Ġsubsequent": 9377,
 "Ġevolved": 9378,
 "=(": 9379,
 "Hand": 9380,
 "Sentence": 9381,
 "pread": 9382,
 "Ã±": 9383,
 "Ġconven": 9384,
 "Ġrid": 9385,
 "Ġclim": 9386,
 "ĠYet": 9387,
 "apes": 9388,
 "ĠThursday": 9389,
 "Ġoutdo": 9390,
 "Ġcolour": 9391,
 "ĠConcept": 9392,
 "Ġdesigns": 9393,
 "Ġgovernments": 9394,
 "Ġshortest": 9395,
 "Ġproteins": 9396,
 "Comp": 9397,
 "Ġdocumentation": 9398,
 "Ġcelebrated": 9399,
 "Ġmoist": 9400,
 "akespeare": 9401,
 "Aug": 9402,
 "CM": 9403,
 "EE": 9404,
 "Num": 9405,
 "Sm": 9406,
 "Ġurl": 9407,
 "reated": 9408,
 "orer": 9409,
 "Ġfellow": 9410,
 "Ġfestival": 9411,
 "Ġmixture": 9412,
 "Ġdp": 9413,
 "ĠSem": 9414,
 "Ġ46": 9415,
 "Ġscored": 9416,
 "uese": 9417,
 "compass": 9418,
 "idespread": 9419,
 "Ġdifficulty": 9420,
 "Ġrevealed": 9421,
 "Ġathlete": 9422,
 "ĠDaniel": 9423,
 "ĠSweden": 9424,
 "Ġsurgery": 9425,
 "TH": 9426,
 "User": 9427,
 "Ġtropical": 9428,
 "Ġcrop": 9429,
 "Ġpump": 9430,
 "cho": 9431,
 "ĠHor": 9432,
 "ĠGall": 9433,
 "Ġsecrets": 9434,
 "ĠOE": 9435,
 "cluded": 9436,
 "Ġprovin": 9437,
 "Ġcalculating": 9438,
 "ĠDev": 9439,
 "Who": 9440,
 "Ġeducated": 9441,
 "ĠResources": 9442,
 "Ġweekly": 9443,
 "ĠPoland": 9444,
 "Ġcompeted": 9445,
 "Ġcaptured": 9446,
 "Ġattempts": 9447,
 "Ġsurvival": 9448,
 "Ġhydro": 9449,
 "Ġsusp": 9450,
 "Ġexpanded": 9451,
 "Ġinfected": 9452,
 "Ġduplicate": 9453,
 "ĠCastle": 9454,
 "Ġsatellite": 9455,
 "Rec": 9456,
 "Yes": 9457,
 "called": 9458,
 "ja": 9459,
 "Ùħ": 9460,
 "ĠTuesday": 9461,
 "ĠAB": 9462,
 "Ġstood": 9463,
 "ĠWikipedia": 9464,
 "ĠDer": 9465,
 "ĠDictionary": 9466,
 "Ġfunctionality": 9467,
 "Ġclar": 9468,
 "Ġadvert": 9469,
 "Ġspark": 9470,
 "Ġcounting": 9471,
 "Ġattend": 9472,
 "ranch": 9473,
 "Ġbusinesses": 9474,
 "Ġregularly": 9475,
 "ĠÂ·": 9476,
 "ĠConsider": 9477,
 "yrics": 9478,
 "heimer": 9479,
 "ĠBulg": 9480,
 "ĠLesson": 9481,
 "ĠSecretary": 9482,
 "Ġcerem": 9483,
 "Det": 9484,
 "Distance": 9485,
 "zo": 9486,
 "Ġic": 9487,
 "ĠØ§": 9488,
 "Ġcas": 9489,
 "Ġcaught": 9490,
 "Ġmigr": 9491,
 "ĠMP": 9492,
 "Ġvar": 9493,
 "Ġdeals": 9494,
 "ĠEs": 9495,
 "ĠNote": 9496,
 "Ġneck": 9497,
 "akh": 9498,
 "consin": 9499,
 "Ġexploring": 9500,
 "ĠExerc": 9501,
 "param": 9502,
 "Ġevening": 9503,
 "Ġfinite": 9504,
 "Ġfewer": 9505,
 "Ġcovering": 9506,
 "END": 9507,
 "Ġrotation": 9508,
 "Hy": 9509,
 "TO": 9510,
 "books": 9511,
 "vy": 9512,
 "Ġreign": 9513,
 "Ġreaching": 9514,
 "ĠCare": 9515,
 "ĠMi": 9516,
 "Ġvulner": 9517,
 "ĠBall": 9518,
 "Ġrat": 9519,
 "Ġchampion": 9520,
 "angers": 9521,
 "Ġboat": 9522,
 "Ġcarries": 9523,
 "Ġ1963": 9524,
 "Ġconcert": 9525,
 "Ġoccurring": 9526,
 "ĠMinnesota": 9527,
 "Ġrecognition": 9528,
 "Ġassignment": 9529,
 "Ġbrothers": 9530,
 "Ġinvented": 9531,
 "Ġdependent": 9532,
 "Ġprotocol": 9533,
 "ĠSenate": 9534,
 "Ġvictory": 9535,
 "Ġbehaviour": 9536,
 "Ġfertil": 9537,
 "Ġpivot": 9538,
 "\">": 9539,
 "91": 9540,
 "fast": 9541,
 "miss": 9542,
 "æľ": 9543,
 "Ġfought": 9544,
 "Ġpit": 9545,
 "ĠSports": 9546,
 "ifer": 9547,
 "ifference": 9548,
 "ĠBrig": 9549,
 "ĠViet": 9550,
 "Ġregression": 9551,
 "Ġparliament": 9552,
 "Ġmonit": 9553,
 "Ġprinting": 9554,
 "Ġinsights": 9555,
 "ĠClimate": 9556,
 "ĠAndrew": 9557,
 "Ġairport": 9558,
 "ĠStudent": 9559,
 "Ġfacility": 9560,
 "Ġmagical": 9561,
 "Ġfabric": 9562,
 "ennessee": 9563,
 "Car": 9564,
 "]))": 9565,
 "ais": 9566,
 "awn": 9567,
 "generate": 9568,
 "mble": 9569,
 "alog": 9570,
 "icients": 9571,
 "Ġreaches": 9572,
 "Ġconnections": 9573,
 "ĠDun": 9574,
 "operation": 9575,
 "Ġfunc": 9576,
 "ardens": 9577,
 "ĠThank": 9578,
 "Ġallerg": 9579,
 "ĠVan": 9580,
 "Ġoverview": 9581,
 "Ġconverting": 9582,
 "Ġexperiments": 9583,
 "ĠCancer": 9584,
 "Ġplanned": 9585,
 "Ġzone": 9586,
 "Ġelementary": 9587,
 "ĠOnline": 9588,
 "LAB": 9589,
 "Ġiterates": 9590,
 "ournament": 9591,
 "ĠSolutions": 9592,
 "ĠHoly": 9593,
 "Ġsurrounded": 9594,
 "ĠChampionship": 9595,
 "rizona": 9596,
 "Red": 9597,
 "XX": 9598,
 "burn": 9599,
 "named": 9600,
 "onents": 9601,
 "orous": 9602,
 "Ġtow": 9603,
 "ĠServ": 9604,
 "ulus": 9605,
 "Ġorange": 9606,
 "Ġcomic": 9607,
 "ĠEss": 9608,
 "Ġranges": 9609,
 "ogs": 9610,
 "Ġintric": 9611,
 "ĠConference": 9612,
 "Ġcharacteristic": 9613,
 "Ġrecognize": 9614,
 "ĠPosts": 9615,
 "ĠQueens": 9616,
 "ĠDecision": 9617,
 "Ġoptimize": 9618,
 "====": 9619,
 "Ġcarrying": 9620,
 "Ġdisplays": 9621,
 "Ġfossil": 9622,
 "got": 9623,
 "iest": 9624,
 "such": 9625,
 "inch": 9626,
 "Ġflying": 9627,
 "Ġwidespread": 9628,
 "amber": 9629,
 "ĠABC": 9630,
 "chant": 9631,
 "ĠHung": 9632,
 "heric": 9633,
 "ĠDocument": 9634,
 "ĠFestival": 9635,
 "Ġweights": 9636,
 "Ġimplies": 9637,
 "Ġabund": 9638,
 "ĠKenn": 9639,
 "Ġ43": 9640,
 "Ġdefines": 9641,
 "Ġinsight": 9642,
 "Ġoccupied": 9643,
 "ĠIntegrated": 9644,
 "ĠArgent": 9645,
 "'`.": 9646,
 "Code": 9647,
 "CON": 9648,
 "HO": 9649,
 "don": 9650,
 "ico": 9651,
 "Ġham": 9652,
 "omatic": 9653,
 "elve": 9654,
 "util": 9655,
 "ĠCE": 9656,
 "ĠDie": 9657,
 "ĠEN": 9658,
 "acts": 9659,
 "Ġscal": 9660,
 "ĠAnswers": 9661,
 "ĠArmen": 9662,
 "Ġrefuge": 9663,
 "Ġimproving": 9664,
 "Ġmeasurements": 9665,
 "Ġrenamed": 9666,
 "ariance": 9667,
 "ĠGlobal": 9668,
 "Ġcastle": 9669,
 "Ġintellectual": 9670,
 "Ġwisdom": 9671,
 "Point": 9672,
 "Ġ×": 9673,
 "Ġinfer": 9674,
 "Ġbanks": 9675,
 "ĠSug": 9676,
 "raq": 9677,
 "irus": 9678,
 "ĠFOR": 9679,
 "Ġchocol": 9680,
 "Ġunders": 9681,
 "Ġapplies": 9682,
 "Ġminerals": 9683,
 "Ġplanets": 9684,
 "Ġidentical": 9685,
 "Ġpresc": 9686,
 "Ġstreets": 9687,
 "Ġfishing": 9688,
 "Ġaudio": 9689,
 "Ġseeking": 9690,
 "EGIN": 9691,
 "Explanation": 9692,
 "ĠOxford": 9693,
 "Gl": 9694,
 "Tree": 9695,
 "uper": 9696,
 "zip": 9697,
 "Ġnom": 9698,
 "ĠBoy": 9699,
 "ĠHard": 9700,
 "ĠDown": 9701,
 "ĠGol": 9702,
 "ĠUk": 9703,
 "asters": 9704,
 "ĠUnits": 9705,
 "Ġextens": 9706,
 "Ġdecay": 9707,
 "ĠNewton": 9708,
 "Ġprofound": 9709,
 "Ġtemplate": 9710,
 "profit": 9711,
 "Ġnorthwest": 9712,
 "ĠCalculator": 9713,
 "ĠSwedish": 9714,
 "ĠFilm": 9715,
 "AA": 9716,
 "Tra": 9717,
 "bell": 9718,
 "Ø¯": 9719,
 "Ġ),": 9720,
 "hetic": 9721,
 "etal": 9722,
 "irk": 9723,
 "ithub": 9724,
 "Ġconditional": 9725,
 "Ġcomplicated": 9726,
 "ulty": 9727,
 "Ġworst": 9728,
 "Ġencompass": 9729,
 "ĠKong": 9730,
 "Ġrose": 9731,
 "Ġmineral": 9732,
 "Ġprinted": 9733,
 "Ġmedieval": 9734,
 "ĠQuant": 9735,
 "Ġreferences": 9736,
 "ĠSoft": 9737,
 "Ġrising": 9738,
 "Ġsoldiers": 9739,
 "Ġacceleration": 9740,
 "Ġcoefficient": 9741,
 "Ġmystery": 9742,
 "Ġbucket": 9743,
 "120": 9744,
 "har": 9745,
 "pick": 9746,
 "env": 9747,
 "Ġasks": 9748,
 "ĠHan": 9749,
 "Ġunable": 9750,
 "Ġmeal": 9751,
 "Ġrecycl": 9752,
 "ĠArctic": 9753,
 "Ġfilename": 9754,
 "Ġgovernor": 9755,
 "yme": 9756,
 "ackson": 9757,
 "Ġremoving": 9758,
 "Ġhydrogen": 9759,
 "?âĢĿ": 9760,
 "HT": 9761,
 "calcul": 9762,
 "raska": 9763,
 "Ðº": 9764,
 "ĠTennessee": 9765,
 "Ġstuff": 9766,
 "Ġstadium": 9767,
 "Ġclimb": 9768,
 "ĠHeart": 9769,
 "Ġkeywords": 9770,
 "Ġmining": 9771,
 "mann": 9772,
 "Ġoptimal": 9773,
 "aptain": 9774,
 "Ġalongside": 9775,
 "Ġvillages": 9776,
 "Ġauthentic": 9777,
 "Ġexceptions": 9778,
 "ĠMediterranean": 9779,
 "Ġcontributions": 9780,
 "Ġsubstances": 9781,
 "Ġtimestamp": 9782,
 "Ġdefeated": 9783,
 "ultiply": 9784,
 "BEGIN": 9785,
 "Mem": 9786,
 "SP": 9787,
 "aug": 9788,
 "Ġinch": 9789,
 "Ġduration": 9790,
 "owa": 9791,
 "idity": 9792,
 "mented": 9793,
 "acc": 9794,
 "ĠVin": 9795,
 "Ġtrav": 9796,
 ")))": 9797,
 "Ġphysic": 9798,
 "ĠPrim": 9799,
 "afe": 9800,
 "ĠStudies": 9801,
 "Ġhistorian": 9802,
 "ĠApple": 9803,
 "Ġgolden": 9804,
 "Ġbelongs": 9805,
 "Posts": 9806,
 "ĠMissouri": 9807,
 "ĠArabic": 9808,
 "ĠIslam": 9809,
 "Ġvitamin": 9810,
 "MD": 9811,
 "Off": 9812,
 "zed": 9813,
 "Ġtone": 9814,
 "Ġmand": 9815,
 "ĠMove": 9816,
 "State": 9817,
 "Ġinterests": 9818,
 "Ġvocals": 9819,
 "ĠChampionships": 9820,
 "Ġtrigger": 9821,
 "Ġprofessionals": 9822,
 "ĠWisconsin": 9823,
 "circ": 9824,
 "Ġglow": 9825,
 "Ġshorter": 9826,
 "ogether": 9827,
 "ounded": 9828,
 "ĠAncient": 9829,
 "Ġminister": 9830,
 "Ġtested": 9831,
 "rank": 9832,
 "Ġwrites": 9833,
 "Ġ1962": 9834,
 "Ġ1955": 9835,
 "Ġgreenhouse": 9836,
 "Ġparticipate": 9837,
 "Ġwaiting": 9838,
 "Ġoptimization": 9839,
 "ĠKorean": 9840,
 "Ġshopping": 9841,
 "integer": 9842,
 "friendly": 9843,
 "Ġvessels": 9844,
 "Ġopinion": 9845,
 "Ġhabits": 9846,
 "Des": 9847,
 "oriented": 9848,
 "Ġpun": 9849,
 "Ġdiversity": 9850,
 "ilder": 9851,
 "oly": 9852,
 "adder": 9853,
 "ĠWould": 9854,
 "Ġatom": 9855,
 "ĠJean": 9856,
 "ĠThough": 9857,
 "Ġspending": 9858,
 "Ġbool": 9859,
 "Ġinstances": 9860,
 "Ġsimultane": 9861,
 "Ġextent": 9862,
 "Ġexpensive": 9863,
 "Ġhomework": 9864,
 "ĠWilliams": 9865,
 "Ġcardi": 9866,
 "ĠFollowing": 9867,
 "ĠJacob": 9868,
 "Check": 9869,
 "Ġfeaturing": 9870,
 "Åį": 9871,
 "erves": 9872,
 "Ġpadd": 9873,
 "oured": 9874,
 "Ġlens": 9875,
 "Ġlyrics": 9876,
 "ĠFace": 9877,
 "ongo": 9878,
 "Inst": 9879,
 "Invalid": 9880,
 "ĠUnivers": 9881,
 "Ġforming": 9882,
 "Ġfounding": 9883,
 "Ġdifferential": 9884,
 "Ġhealthcare": 9885,
 "Ġelectoral": 9886,
 "Ġbreaking": 9887,
 "2005": 9888,
 "ĠByzant": 9889,
 "ĠHeritage": 9890,
 "Ã¡n": 9891,
 "Ġrevol": 9892,
 "Ġdecline": 9893,
 "ÑģÑĤ": 9894,
 "Ġimagine": 9895,
 "Ġsettled": 9896,
 "Area": 9897,
 "Ġmysterious": 9898,
 "ĠKentucky": 9899,
 "Ġobservations": 9900,
 "eh": 9901,
 "foo": 9902,
 "lan": 9903,
 "Ġsells": 9904,
 "ĠArizona": 9905,
 "ĠSab": 9906,
 "Ġvon": 9907,
 "ĠDC": 9908,
 "ĠOs": 9909,
 "Ġresolution": 9910,
 "Ġenable": 9911,
 "athan": 9912,
 "Ġconsult": 9913,
 "Ġinteraction": 9914,
 "olds": 9915,
 "Ġmetab": 9916,
 "Start": 9917,
 "Array": 9918,
 "Ġboundaries": 9919,
 "Ġreplacing": 9920,
 "Ġmechanism": 9921,
 "ĠJustice": 9922,
 "Ġdemonstrate": 9923,
 "Ġdiagnosed": 9924,
 "Ġuncertain": 9925,
 "Ġdestroyed": 9926,
 ":\"": 9927,
 "Dec": 9928,
 "TC": 9929,
 "core": 9930,
 "Ġsizes": 9931,
 "Ġcot": 9932,
 "Ġborders": 9933,
 "Ġtot": 9934,
 "Ġnone": 9935,
 "ĠPC": 9936,
 "quir": 9937,
 "ĠDou": 9938,
 "ĠRog": 9939,
 "agle": 9940,
 "Ġsched": 9941,
 "askell": 9942,
 "Ġnewline": 9943,
 "ĠSecurity": 9944,
 "Ġguarant": 9945,
 "ĠShakespeare": 9946,
 "ĠIndones": 9947,
 "Ġslope": 9948,
 "Ġconfir": 9949,
 "Ġreceives": 9950,
 "Ġpersons": 9951,
 "ĠBrook": 9952,
 "Ġcircular": 9953,
 "Ġadapted": 9954,
 "ĠOrganization": 9955,
 "'`,": 9956,
 "UM": 9957,
 "pur": 9958,
 "parent": 9959,
 "rations": 9960,
 "Ġtang": 9961,
 "Ġtorch": 9962,
 "Ġsoul": 9963,
 "Ġpi": 9964,
 "Ġbs": 9965,
 "ĠSong": 9966,
 "ĠCape": 9967,
 "Ġvocal": 9968,
 "ĠFile": 9969,
 "Ġshore": 9970,
 "inding": 9971,
 "Ġdisk": 9972,
 "ova": 9973,
 "archy": 9974,
 "1234": 9975,
 "Ġdescending": 9976,
 "Ġloan": 9977,
 "ERT": 9978,
 "Ġresearcher": 9979,
 "Ġconstantly": 9980,
 "++)": 9981,
 "Ġimmigr": 9982,
 "ĠAgency": 9983,
 "Ġbabies": 9984,
 "Ġagreement": 9985,
 "Ġpoetry": 9986,
 "Feb": 9987,
 "Vol": 9988,
 "](": 9989,
 "draw": 9990,
 "vens": 9991,
 "Ġtk": 9992,
 "Ġbath": 9993,
 "username": 9994,
 "uma": 9995,
 "Ġ(`": 9996,
 "seud": 9997,
 "ĠBBC": 9998,
 "Ġranging": 9999,
 "Ġhem": 10000,
 "pled": 10001,
 "Ġshares": 10002,
 "Ġ56": 10003,
 "aware": 10004,
 "Ġfilters": 10005,
 "Ġmonitor": 10006,
 "ĠLeon": 10007,
 "Ġactivation": 10008,
 "chester": 10009,
 "Ġidentifying": 10010,
 "Ġpredictions": 10011,
 "ĠSpec": 10012,
 "Ġtheoretical": 10013,
 "Ġordinary": 10014,
 "ĠOttoman": 10015,
 "Ġingredients": 10016,
 "Final": 10017,
 "Ste": 10018,
 "mn": 10019,
 "tz": 10020,
 "uis": 10021,
 "Ġnurs": 10022,
 "etics": 10023,
 "idae": 10024,
 "ĠFarm": 10025,
 "achers": 10026,
 "Ġarrest": 10027,
 "outs": 10028,
 "fty": 10029,
 "issipp": 10030,
 "ĠAlf": 10031,
 "Ġsorts": 10032,
 "Ġheadqu": 10033,
 "Chapter": 10034,
 "Ġcombat": 10035,
 "ĠSolar": 10036,
 "Ġdivisors": 10037,
 "Ġmolecular": 10038,
 "Ġutilize": 10039,
 "Ġbehaviors": 10040,
 "Ġsecure": 10041,
 "Ġnutrition": 10042,
 "ĠPromotions": 10043,
 "General": 10044,
 "Ġstyles": 10045,
 "Div": 10046,
 "Dav": 10047,
 "VID": 10048,
 "ao": 10049,
 "has": 10050,
 "lat": 10051,
 "zz": 10052,
 "åĪ": 10053,
 "height": 10054,
 "Ġhat": 10055,
 "Ġdeeper": 10056,
 "Ġtravers": 10057,
 "Ġlands": 10058,
 "Ġpoison": 10059,
 "aterials": 10060,
 "Ġcalendar": 10061,
 "Ġjoke": 10062,
 "Ġlifestyle": 10063,
 "Ġcooking": 10064,
 "Ġspectrum": 10065,
 "CII": 10066,
 "Lab": 10067,
 "Min": 10068,
 "NN": 10069,
 "uy": 10070,
 "Ġtennis": 10071,
 "Ġdies": 10072,
 "Ġdress": 10073,
 "rooms": 10074,
 "ĠPHP": 10075,
 "Ġconj": 10076,
 "ĠLow": 10077,
 "ĠGi": 10078,
 "Ġabuse": 10079,
 "Ġ47": 10080,
 "Ġsomewhat": 10081,
 "Ġ95": 10082,
 "Ġ1961": 10083,
 "bean": 10084,
 "escribe": 10085,
 "Ġensuring": 10086,
 "Ġscenario": 10087,
 "Ġadventure": 10088,
 "ĠIslamic": 10089,
 "green": 10090,
 "sure": 10091,
 "ui": 10092,
 "ucl": 10093,
 "Ġtor": 10094,
 "ilton": 10095,
 "Ġgar": 10096,
 "iah": 10097,
 "ressive": 10098,
 "Ġspecify": 10099,
 "Ġlights": 10100,
 "Ġinfluential": 10101,
 "Ġvertex": 10102,
 "ĠPosted": 10103,
 "Ġgraduate": 10104,
 "Ġclaimed": 10105,
 "contin": 10106,
 "ourage": 10107,
 "Ġsensitive": 10108,
 "Ġassumed": 10109,
 "ĠAntar": 10110,
 "ĠPortuguese": 10111,
 "ographer": 10112,
 "Willi": 10113,
 "hy": 10114,
 "mun": 10115,
 "uity": 10116,
 "Ġsod": 10117,
 "Ġfix": 10118,
 "itled": 10119,
 "Ġtokens": 10120,
 "Ġrein": 10121,
 "oli": 10122,
 "ĠPaper": 10123,
 "ĠTheorem": 10124,
 "Ġvaries": 10125,
 "ĠRay": 10126,
 "Ġdisput": 10127,
 "Ġdisap": 10128,
 "Ġinteractions": 10129,
 "Ġtextbook": 10130,
 "Ġwriters": 10131,
 "Choose": 10132,
 "Ġ1947": 10133,
 "Ġconversations": 10134,
 "ĠIndiana": 10135,
 "Ġconsumer": 10136,
 "ĠMcC": 10137,
 "Ġpaintings": 10138,
 "Learn": 10139,
 "Ġentertainment": 10140,
 "110": 10141,
 "=-": 10142,
 "Bob": 10143,
 "Does": 10144,
 "iost": 10145,
 "Ġaer": 10146,
 "Ġanthrop": 10147,
 "Ġhills": 10148,
 "Ġnest": 10149,
 "ĠPsych": 10150,
 "sex": 10151,
 "ĠFall": 10152,
 "abama": 10153,
 "Ġhen": 10154,
 "Ġneither": 10155,
 "putation": 10156,
 "apse": 10157,
 "ĠChile": 10158,
 "inking": 10159,
 "Ġsurfaces": 10160,
 "Ġafford": 10161,
 "hoods": 10162,
 "ĠTwitter": 10163,
 "ĠRadio": 10164,
 "Ġwitness": 10165,
 "Ġnarrative": 10166,
 "Ġwarning": 10167,
 "Ġconventional": 10168,
 "Ġenumerate": 10169,
 "issippi": 10170,
 ")$$": 10171,
 "Aust": 10172,
 "Length": 10173,
 "binary": 10174,
 "mology": 10175,
 "making": 10176,
 "zes": 10177,
 "Ġfrag": 10178,
 "Ġma": 10179,
 "Ġthreshold": 10180,
 "ĠSaturday": 10181,
 "ĠPractice": 10182,
 "Ġconclusion": 10183,
 "ĠHospital": 10184,
 "ĠRoute": 10185,
 "rium": 10186,
 "essions": 10187,
 "asts": 10188,
 "ĠKil": 10189,
 "Ġmanaging": 10190,
 "Ġelev": 10191,
 "Ġsys": 10192,
 "Ġguard": 10193,
 "ĠColl": 10194,
 "Ã©e": 10195,
 "Ġforecast": 10196,
 "Ġworksheets": 10197,
 "ESS": 10198,
 "Ġhousing": 10199,
 "ĠNumPy": 10200,
 "Ġconfiguration": 10201,
 ",-": 10202,
 "Did": 10203,
 "det": 10204,
 "sal": 10205,
 "zheimer": 10206,
 "Ġturb": 10207,
 "reed": 10208,
 "imp": 10209,
 "ĠBir": 10210,
 "ĠBooks": 10211,
 "ĠEX": 10212,
 "aven": 10213,
 "Ġtruly": 10214,
 "ĠEncyclopedia": 10215,
 "Thanks": 10216,
 "comb": 10217,
 "bey": 10218,
 "Ġcrick": 10219,
 "Ġexisted": 10220,
 "Ġcommands": 10221,
 "Ġfrequencies": 10222,
 "Ġ1957": 10223,
 "Ġemployed": 10224,
 "Ġrender": 10225,
 "Ġexciting": 10226,
 "Ġcampus": 10227,
 "ĠObser": 10228,
 "Ġtribe": 10229,
 "ĠOriginally": 10230,
 "Ġdollars": 10231,
 "Ġclothing": 10232,
 "Base": 10233,
 "]`.": 10234,
 "days": 10235,
 "Ġwish": 10236,
 "Ġhtml": 10237,
 "ulous": 10238,
 "lywood": 10239,
 "ĠNic": 10240,
 "izza": 10241,
 "Ġworse": 10242,
 "Ġenroll": 10243,
 "ruce": 10244,
 "ĠVi": 10245,
 "Ġcharges": 10246,
 "Ġ800": 10247,
 "---": 10248,
 "ĠArthur": 10249,
 "ĠComplex": 10250,
 "Ġmetric": 10251,
 "Ġprobabilities": 10252,
 "Ġcriminal": 10253,
 "Ġ1956": 10254,
 "Ġbands": 10255,
 "Ġindustries": 10256,
 "Ġnumeric": 10257,
 "regon": 10258,
 "Ġbrush": 10259,
 "Ġnovels": 10260,
 "ĠUnderstand": 10261,
 "Ġharmful": 10262,
 "ĠSarah": 10263,
 "ĠNobel": 10264,
 "Olymp": 10265,
 "SI": 10266,
 "Ġmood": 10267,
 "ilater": 10268,
 "ĠIraq": 10269,
 "ĠPos": 10270,
 "ĠMunicip": 10271,
 "ĠBon": 10272,
 "ĠBorn": 10273,
 "Ġdeck": 10274,
 "Ġdealing": 10275,
 "Ġride": 10276,
 "ĠGulf": 10277,
 "Ġneural": 10278,
 "agen": 10279,
 "Ġperp": 10280,
 "athy": 10281,
 "Ġcomparing": 10282,
 "Ġamazing": 10283,
 "Ġdesignated": 10284,
 "Ġbreed": 10285,
 "Ġengaged": 10286,
 "ammation": 10287,
 "Ġwinner": 10288,
 "Ġrespective": 10289,
 "CTION": 10290,
 "Ġupload": 10291,
 "Ġhotel": 10292,
 "ĠHomework": 10293,
 "ĠVolume": 10294,
 "posted": 10295,
 "Joined": 10296,
 "Fil": 10297,
 "UL": 10298,
 "aÄŁ": 10299,
 "father": 10300,
 "hma": 10301,
 "ÙĪ": 10302,
 "Ġfav": 10303,
 "Ġnoun": 10304,
 "omach": 10305,
 "ĠTool": 10306,
 "etary": 10307,
 "children": 10308,
 "osph": 10309,
 "Ġkeras": 10310,
 "ultan": 10311,
 "Ġjun": 10312,
 "rene": 10313,
 "orses": 10314,
 "Ġblo": 10315,
 "Ġflash": 10316,
 "enna": 10317,
 "Ġcolleagues": 10318,
 "Ġ1942": 10319,
 "covered": 10320,
 "Ġdirections": 10321,
 "ĠBasics": 10322,
 "ĠCourse": 10323,
 "Ġduplicates": 10324,
 "ĠToronto": 10325,
 "Ġbeliefs": 10326,
 "elestial": 10327,
 "ĠLegislative": 10328,
 "ĠTaylor": 10329,
 ")\"": 10330,
 ")}": 10331,
 "HA": 10332,
 "Rep": 10333,
 "bf": 10334,
 "just": 10335,
 "onent": 10336,
 "Ġfing": 10337,
 "than": 10338,
 "ĠMaster": 10339,
 "ĠHarr": 10340,
 "ĠDays": 10341,
 "ĠLew": 10342,
 "Ġhaven": 10343,
 "eps": 10344,
 "Ġabilities": 10345,
 "Ġvalley": 10346,
 "ĠĠĠĠĠĠĠĠčĊ": 10347,
 "Ġcompat": 10348,
 "ysics": 10349,
 "Ġinstruct": 10350,
 "Ġ99": 10351,
 "Ġexplicit": 10352,
 "Ġenthus": 10353,
 "Ġinsurance": 10354,
 "\");": 10355,
 "Ġoccasion": 10356,
 "Play": 10357,
 "ĠStephen": 10358,
 "Ġdynasty": 10359,
 "Ġautomatically": 10360,
 "ĠBanglades": 10361,
 "athered": 10362,
 "FS": 10363,
 "Writ": 10364,
 "screen": 10365,
 "xml": 10366,
 "Å¡": 10367,
 "reverse": 10368,
 "Ġfur": 10369,
 "Ġmine": 10370,
 "Ġtower": 10371,
 "ĠAR": 10372,
 "three": 10373,
 "ersion": 10374,
 "Ġusual": 10375,
 "Ġuncle": 10376,
 "Ġwheel": 10377,
 "Ġtrailing": 10378,
 "exec": 10379,
 "Ġinverse": 10380,
 "Ġentities": 10381,
 "Ġconstitution": 10382,
 "azy": 10383,
 "Ġannually": 10384,
 "Ġcertainly": 10385,
 "Ġsixth": 10386,
 "enaissance": 10387,
 "Students": 10388,
 "ĠDirector": 10389,
 "Ġpassengers": 10390,
 "'(": 10391,
 "Cent": 10392,
 "cs": 10393,
 "dt": 10394,
 "een": 10395,
 "ti": 10396,
 "Ġtub": 10397,
 "Ġintern": 10398,
 "Ġmild": 10399,
 "Ġnerve": 10400,
 "Ġliv": 10401,
 "thlet": 10402,
 "ĠHem": 10403,
 "Ġorders": 10404,
 "ĠDam": 10405,
 "ĠGÃ¼": 10406,
 "teenth": 10407,
 "agu": 10408,
 "Ġ'__": 10409,
 "Ġmanif": 10410,
 "ĠVideo": 10411,
 "Ġcurrency": 10412,
 "Ġtransmit": 10413,
 "Ġartistic": 10414,
 "Ġopera": 10415,
 "));": 10416,
 "Any": 10417,
 "ometer": 10418,
 "ennial": 10419,
 "encode": 10420,
 "Ġ1944": 10421,
 "Ġiterable": 10422,
 "Ġextracted": 10423,
 "ĠÐ¿": 10424,
 "Ġmagic": 10425,
 "ĠHTTP": 10426,
 "Ġcelebrate": 10427,
 "Ġjoining": 10428,
 "Ġwatching": 10429,
 "Ġsurprising": 10430,
 "Ġprocedures": 10431,
 "Ġloved": 10432,
 "lang": 10433,
 "ois": 10434,
 "tw": 10435,
 "}_{": 10436,
 "Ġsought": 10437,
 "edition": 10438,
 "icide": 10439,
 "Ġmit": 10440,
 "sts": 10441,
 "ĠTE": 10442,
 "Ġbeings": 10443,
 "atever": 10444,
 "adi": 10445,
 "grid": 10446,
 "Inte": 10447,
 "Ġcomplement": 10448,
 "Ġworksheet": 10449,
 "Ġfacilit": 10450,
 "ĠExpression": 10451,
 "Ġmythology": 10452,
 "ĠRailway": 10453,
 "Ġnortheast": 10454,
 "Object": 10455,
 "Ġpermanent": 10456,
 "Even": 10457,
 "LC": 10458,
 "WS": 10459,
 "sis": 10460,
 "tax": 10461,
 "Ġcable": 10462,
 "Ġfetch": 10463,
 "ĠAz": 10464,
 "ĠCensus": 10465,
 "idi": 10466,
 "ulin": 10467,
 "ĠPu": 10468,
 "ĠBad": 10469,
 "ĠBrain": 10470,
 "ĠRoot": 10471,
 "Ġsuit": 10472,
 "akota": 10473,
 "ĠJoh": 10474,
 "Ġenables": 10475,
 "ĠKids": 10476,
 "Ġsciences": 10477,
 "Ġprimes": 10478,
 "Ġroof": 10479,
 "auss": 10480,
 "__':": 10481,
 "Ġgrant": 10482,
 "Ġcharged": 10483,
 "Ġmaybe": 10484,
 "Ġaged": 10485,
 "Ġsignature": 10486,
 "Christ": 10487,
 "Ġdebt": 10488,
 "Ġkingdom": 10489,
 "Ġdiagnosis": 10490,
 "Ġburning": 10491,
 "Ġsuffering": 10492,
 "Definition": 10493,
 "Ġultimately": 10494,
 "ĠConfed": 10495,
 "(),": 10496,
 "OM": 10497,
 "average": 10498,
 "oen": 10499,
 "Ġcsv": 10500,
 "Ġblow": 10501,
 "Ġmic": 10502,
 "ĠPope": 10503,
 "quest": 10504,
 "ĠWars": 10505,
 "ĠRam": 10506,
 "ĠLi": 10507,
 "plify": 10508,
 "Ġabol": 10509,
 "Ġabandon": 10510,
 "Ġstrict": 10511,
 "thew": 10512,
 "ĠShort": 10513,
 "ĠAthens": 10514,
 "Ġconfidence": 10515,
 "######": 10516,
 "Ġexercises": 10517,
 "Ġpsychological": 10518,
 "Ġuniversal": 10519,
 "Ġpreparation": 10520,
 "Ġpregnancy": 10521,
 "ĠOEIS": 10522,
 "\"{": 10523,
 ")`.": 10524,
 ":]": 10525,
 "OST": 10526,
 "inction": 10527,
 "Ġcoun": 10528,
 "Ġdx": 10529,
 "Ġnose": 10530,
 "ĠDue": 10531,
 "ureau": 10532,
 "ĠJackson": 10533,
 "eller": 10534,
 "duate": 10535,
 "Ġworry": 10536,
 "Ġresc": 10537,
 "Ġ51": 10538,
 "Ġcream": 10539,
 "Ġreco": 10540,
 "Ġthemes": 10541,
 "ĠForum": 10542,
 "amps": 10543,
 "Ġ1959": 10544,
 "ĠBox": 10545,
 "ĠContent": 10546,
 "ĠâĪĪ": 10547,
 "Ġmarketing": 10548,
 "Ġdamaged": 10549,
 "ĠLabour": 10550,
 "Researchers": 10551,
 "Ġwhitespace": 10552,
 "ĠAdministration": 10553,
 "Big": 10554,
 "bash": 10555,
 "cost": 10556,
 "fortunately": 10557,
 "Ġcv": 10558,
 "Ġcrow": 10559,
 "Ġbatt": 10560,
 "Ġdy": 10561,
 "rove": 10562,
 "Ġhole": 10563,
 "ilarly": 10564,
 "rait": 10565,
 "ĠGil": 10566,
 "aki": 10567,
 "Ġobesity": 10568,
 "Ġdrum": 10569,
 "Ġoccas": 10570,
 "Ġtemple": 10571,
 "Ġmargin": 10572,
 "Ġrealize": 10573,
 "Ġpainted": 10574,
 "Ġtreatments": 10575,
 "ĠRepresent": 10576,
 "Ġfunds": 10577,
 "Ġphoto": 10578,
 "ĠAccount": 10579,
 "Ġsubstant": 10580,
 "ĠMississippi": 10581,
 "Ġtitled": 10582,
 "Ġsatisfy": 10583,
 "Ġtalks": 10584,
 "ĠServices": 10585,
 "Act": 10586,
 "Element": 10587,
 "mi": 10588,
 "since": 10589,
 "Ġfra": 10590,
 "Ġwal": 10591,
 "ĠSher": 10592,
 "ĠMiller": 10593,
 "gex": 10594,
 "ĠRos": 10595,
 "oga": 10596,
 "Ġ41": 10597,
 "Ġspr": 10598,
 "Ġourselves": 10599,
 "Ġaggreg": 10600,
 "ĠSever": 10601,
 "ucose": 10602,
 "Ġ1943": 10603,
 "Ġ1949": 10604,
 "Ġdelay": 10605,
 "Ġlawyer": 10606,
 "Ġencoded": 10607,
 "Ġhappening": 10608,
 "chestra": 10609,
 "Ġautism": 10610,
 "Ġlaid": 10611,
 "ĠPolit": 10612,
 "ĠHarry": 10613,
 "Ġestimates": 10614,
 "ĠKeep": 10615,
 "frequency": 10616,
 "Ġlungs": 10617,
 "ĠMATLAB": 10618,
 "Ġstroke": 10619,
 "Ġweapons": 10620,
 "Consider": 10621,
 "Ġarbitrary": 10622,
 "iostream": 10623,
 "';": 10624,
 "cursor": 10625,
 "uce": 10626,
 "Ġwings": 10627,
 "icut": 10628,
 "letters": 10629,
 "ĠHop": 10630,
 "ĠHave": 10631,
 "Ġrice": 10632,
 "agan": 10633,
 "Ġabstract": 10634,
 "contain": 10635,
 "Ġgenerations": 10636,
 "Ġsolo": 10637,
 "ĠExam": 10638,
 "ĠIndex": 10639,
 "2006": 10640,
 "Ġ240": 10641,
 "Ġ1952": 10642,
 "domin": 10643,
 "}}$$": 10644,
 "Ġcontributed": 10645,
 "ĠArchitect": 10646,
 "ĠSurvey": 10647,
 "ĠREST": 10648,
 "TER": 10649,
 "bet": 10650,
 "law": 10651,
 "Ġcrown": 10652,
 "Ġnerv": 10653,
 "ĠRen": 10654,
 "osion": 10655,
 "ĠKansas": 10656,
 "Ġobst": 10657,
 "Ġblur": 10658,
 "2019": 10659,
 "Ġenters": 10660,
 "Also": 10661,
 "Ġcompetitive": 10662,
 "Ġnecessarily": 10663,
 "Ġwindows": 10664,
 "relation": 10665,
 "kyo": 10666,
 "Ġconsistent": 10667,
 "Ġfriction": 10668,
 "About": 10669,
 "Ġsubsequently": 10670,
 "Ġconstraints": 10671,
 "Ġpronoun": 10672,
 "`)": 10673,
 "{\"": 10674,
 "Ġtack": 10675,
 "Ġsoph": 10676,
 "Ġsurname": 10677,
 "Ġwing": 10678,
 "Ġhill": 10679,
 "ĠTal": 10680,
 "ĠTypes": 10681,
 "ĠAud": 10682,
 "pton": 10683,
 "ghan": 10684,
 "Ġclot": 10685,
 "never": 10686,
 "Ġdefense": 10687,
 "Ġdesk": 10688,
 "Ġsubset": 10689,
 "Ġcuriosity": 10690,
 "Ġsmoke": 10691,
 "Ġcalculus": 10692,
 "Ġstrange": 10693,
 "shaped": 10694,
 "Ġradical": 10695,
 "Ġintegration": 10696,
 "ĠSteve": 10697,
 "ĠModern": 10698,
 "partial": 10699,
 "Ġdialogue": 10700,
 "uhammad": 10701,
 "%)": 10702,
 "Ext": 10703,
 "pie": 10704,
 "Ġcow": 10705,
 "anum": 10706,
 "Ġinn": 10707,
 "aron": 10708,
 "Ġdent": 10709,
 "Ġhal": 10710,
 "Ġliver": 10711,
 "ammat": 10712,
 "estone": 10713,
 "ĠBeng": 10714,
 "ĠLink": 10715,
 "Ġoutbreak": 10716,
 "Ġdisaster": 10717,
 "ĠAnat": 10718,
 "except": 10719,
 "Ġextend": 10720,
 "ĠSection": 10721,
 "annels": 10722,
 "space": 10723,
 "ĠNeed": 10724,
 "Ġ1951": 10725,
 "Ġdefinitions": 10726,
 "Ġsouthwest": 10727,
 "ĠSolving": 10728,
 "ĠEmperor": 10729,
 "Ġguidance": 10730,
 "Subject": 10731,
 ">>>": 10732,
 "Ġlaboratory": 10733,
 "Ġcoefficients": 10734,
 "William": 10735,
 "AK": 10736,
 "GC": 10737,
 "hr": 10738,
 "mem": 10739,
 "Ġtube": 10740,
 "inetic": 10741,
 "Ġfract": 10742,
 "icode": 10743,
 "asant": 10744,
 "omp": 10745,
 "urers": 10746,
 "unning": 10747,
 "ĠSometimes": 10748,
 "ĠPa": 10749,
 "ardo": 10750,
 "Ġintention": 10751,
 "Ġjoy": 10752,
 "ĠVill": 10753,
 "Ġroyal": 10754,
 "Ġrecover": 10755,
 "Ġresulted": 10756,
 "Ġreliable": 10757,
 "ĠAlzheimer": 10758,
 "Ġchest": 10759,
 "Ġparad": 10760,
 "Ġcouldn": 10761,
 "Ġsingles": 10762,
 "Ġdetermines": 10763,
 "Ġmarkets": 10764,
 "Ġconnecting": 10765,
 "gressive": 10766,
 "Ġdenominator": 10767,
 "Ġwooden": 10768,
 "ĠURLs": 10769,
 "Ġsimplify": 10770,
 "Ġhabitats": 10771,
 "Ġsuffix": 10772,
 "Ġfleet": 10773,
 "Net": 10774,
 "cup": 10775,
 "jection": 10776,
 "squ": 10777,
 "Ġsoutheast": 10778,
 "Ġwelcome": 10779,
 "Ġalive": 10780,
 "ĠElement": 10781,
 "Ġshock": 10782,
 "Ġcanal": 10783,
 "ĠInclude": 10784,
 "perature": 10785,
 "earing": 10786,
 "Ġintensity": 10787,
 "Ġclients": 10788,
 "Ġboost": 10789,
 "Ġundert": 10790,
 "ĠTokyo": 10791,
 "Ġbuying": 10792,
 "ĠAlabama": 10793,
 "Ġartif": 10794,
 "Ġcenters": 10795,
 "Ġprofile": 10796,
 "Ġtriple": 10797,
 "Ġengineers": 10798,
 "ĠRepublican": 10799,
 "Ġfitness": 10800,
 "ĠTerrit": 10801,
 "ĠNova": 10802,
 "Regression": 10803,
 "Ġkitchen": 10804,
 "pearance": 10805,
 "timestamp": 10806,
 "OD": 10807,
 "jan": 10808,
 "Ã¥": 10809,
 "Øª": 10810,
 "Ġtight": 10811,
 "anth": 10812,
 "Ġpiano": 10813,
 "urity": 10814,
 "ĠAmb": 10815,
 "iva": 10816,
 "ĠSix": 10817,
 "through": 10818,
 "Ġbeat": 10819,
 "ĠHong": 10820,
 "ĠWind": 10821,
 "opic": 10822,
 "ĠFlu": 10823,
 "ĠReferences": 10824,
 "ĠLady": 10825,
 "ĠGarden": 10826,
 "Ġ54": 10827,
 "Ġtrace": 10828,
 "Ġproved": 10829,
 "Through": 10830,
 "Ġrelax": 10831,
 "Ġreceiving": 10832,
 "Ã¼k": 10833,
 "ĠImplement": 10834,
 "ĠDisney": 10835,
 "Ġpackages": 10836,
 "substring": 10837,
 "Ġcopper": 10838,
 "Ġconsumers": 10839,
 "ĠQuebec": 10840,
 "Ġtransformed": 10841,
 "ĠGovernor": 10842,
 "Ġparentheses": 10843,
 "Ġexperimental": 10844,
 "Ġshaped": 10845,
 "ĠDenmark": 10846,
 "Ġbonds": 10847,
 "Ġbreathing": 10848,
 "****************": 10849,
 "Ġmyself": 10850,
 "Ġneutral": 10851,
 "600": 10852,
 "Max": 10853,
 "Ġcelestial": 10854,
 "Ġfu": 10855,
 "Ġfinger": 10856,
 "Ġwins": 10857,
 "Ġhats": 10858,
 "ĠTry": 10859,
 "Ġgap": 10860,
 "ĠSant": 10861,
 "Ġstomach": 10862,
 "lyn": 10863,
 "ĠWat": 10864,
 "ĠRenaissance": 10865,
 "Ġnoticed": 10866,
 "Ġflour": 10867,
 "Ġestate": 10868,
 "Ġheader": 10869,
 "ĠTeacher": 10870,
 "Ġpainter": 10871,
 "Ġgenre": 10872,
 "Ġ1953": 10873,
 "Ġstopped": 10874,
 "Ġsupplies": 10875,
 "holders": 10876,
 "ĠEgyptian": 10877,
 "Ġdoubt": 10878,
 "âĢ¦âĢ¦âĢ¦âĢ¦": 10879,
 "Olympic": 10880,
 "Di": 10881,
 "aired": 10882,
 "mouth": 10883,
 "Ġfaced": 10884,
 "Ġbrack": 10885,
 "Ġtoler": 10886,
 "Ġhall": 10887,
 "amount": 10888,
 "Ġvice": 10889,
 "oples": 10890,
 "ĠLar": 10891,
 "ĠOregon": 10892,
 "Ġaccum": 10893,
 "2020": 10894,
 "Ġtemporary": 10895,
 "Ġkeeps": 10896,
 "Ġputting": 10897,
 "Ġbirthday": 10898,
 "Ġepid": 10899,
 "Ġcopies": 10900,
 "marize": 10901,
 "spec": 10902,
 "temp": 10903,
 "ĠSupport": 10904,
 "Ġpuzzle": 10905,
 "original": 10906,
 "uccess": 10907,
 "ĠFinnish": 10908,
 "IM": 10909,
 "June": 10910,
 "Opt": 10911,
 "fly": 10912,
 "fibonacci": 10913,
 "github": 10914,
 "iology": 10915,
 "song": 10916,
 "Ġ~": 10917,
 "Ġtf": 10918,
 "ascular": 10919,
 "Ġles": 10920,
 "ĠSample": 10921,
 "istent": 10922,
 "iratory": 10923,
 "ĠMir": 10924,
 "ĠFlow": 10925,
 "abled": 10926,
 "ĠJon": 10927,
 "orms": 10928,
 "âĢĻ.": 10929,
 "2012": 10930,
 "Ġequally": 10931,
 "Ġanywhere": 10932,
 "cium": 10933,
 "ĠDeath": 10934,
 "ĠCountry": 10935,
 "ĠCentury": 10936,
 "Ġfocusing": 10937,
 "Ġcommunications": 10938,
 "ĠBarb": 10939,
 "Plan": 10940,
 "Ġdeeply": 10941,
 "Ġfemales": 10942,
 "Ð¸Ð": 10943,
 "ĠFormula": 10944,
 "ĠSamuel": 10945,
 "ĠBetween": 10946,
 "Ġlicensed": 10947,
 "iatric": 10948,
 "elescope": 10949,
 "Ġchromos": 10950,
 "BN": 10951,
 "Path": 10952,
 "Ret": 10953,
 "VD": 10954,
 "cr": 10955,
 "kw": 10956,
 "route": 10957,
 "scores": 10958,
 "âĺħ": 10959,
 "Ġtip": 10960,
 "Ġfurn": 10961,
 "oust": 10962,
 "Ġmi": 10963,
 "Ġmice": 10964,
 "Ġmask": 10965,
 "Ġmoral": 10966,
 "Ġlosing": 10967,
 "ĠTH": 10968,
 "ols": 10969,
 "urches": 10970,
 "ĠAvenue": 10971,
 "Ġgif": 10972,
 "ivated": 10973,
 "ĠCop": 10974,
 "ĠIowa": 10975,
 "ĠFA": 10976,
 "plant": 10977,
 "Ġmeals": 10978,
 "Ġdetection": 10979,
 "ĠSchools": 10980,
 "Ġ1946": 10981,
 "braham": 10982,
 "Ġliterally": 10983,
 "ĠAccess": 10984,
 "Ġprevention": 10985,
 "Ġquantities": 10986,
 "marks": 10987,
 "Ġregardless": 10988,
 "Ġcleaning": 10989,
 "ĠAppro": 10990,
 "Ġconcatenate": 10991,
 "Ġphenomena": 10992,
 "Ġdistinguished": 10993,
 "ĠConnecticut": 10994,
 "Ġcylinder": 10995,
 "ĠNebraska": 10996,
 ".*": 10997,
 "Her": 10998,
 "Like": 10999,
 "Met": 11000,
 "Product": 11001,
 "double": 11002,
 "four": 11003,
 "Ġaster": 11004,
 "Ġbomb": 11005,
 "stack": 11006,
 "omous": 11007,
 "ivities": 11008,
 "ĠSn": 11009,
 "ateur": 11010,
 "Ġveter": 11011,
 "secret": 11012,
 "ĠFord": 11013,
 "ĠLie": 11014,
 "ĠGh": 11015,
 "aks": 11016,
 "ĠStock": 11017,
 "Ġtrick": 11018,
 "Ġindeed": 11019,
 "Ġ85": 11020,
 "Ġinterior": 11021,
 "ĠForces": 11022,
 "Ġapproved": 11023,
 "ika": 11024,
 "ĠTrade": 11025,
 "Ġrobot": 11026,
 "ĠHamilton": 11027,
 "ĠRhine": 11028,
 "Ġheavily": 11029,
 "Ġsaved": 11030,
 "Ġswimming": 11031,
 "layers": 11032,
 "Ġgalaxy": 11033,
 "Ġchocolate": 11034,
 "Ġrecovery": 11035,
 "-%": 11036,
 "Af": 11037,
 "Free": 11038,
 "Published": 11039,
 "Sw": 11040,
 "UP": 11041,
 "Ġhits": 11042,
 "Ġlung": 11043,
 "Ġgases": 11044,
 "ceans": 11045,
 "ĠPict": 11046,
 "ĠBinary": 11047,
 "ĠHal": 11048,
 "ĠHart": 11049,
 "ĠEU": 11050,
 "Ġwash": 11051,
 "plane": 11052,
 "inters": 11053,
 "client": 11054,
 "anga": 11055,
 "weet": 11056,
 "ernel": 11057,
 "Ġsuppose": 11058,
 "ĠMarg": 11059,
 "Ġvolunte": 11060,
 "ĠDriver": 11061,
 "Ġportray": 11062,
 "corpor": 11063,
 "Ġfarming": 11064,
 "ĠSmall": 11065,
 "Ġrecursion": 11066,
 "Ġstrengthen": 11067,
 "Ġviruses": 11068,
 "Ġimmediate": 11069,
 "Ġabbrevi": 11070,
 "Gr": 11071,
 "NS": 11072,
 "PUT": 11073,
 "files": 11074,
 "lav": 11075,
 "night": 11076,
 "tract": 11077,
 "ĠHaskell": 11078,
 "ĠWalk": 11079,
 "ĠRod": 11080,
 "acity": 11081,
 "ĠNear": 11082,
 "oca": 11083,
 "ordinary": 11084,
 "Ġsole": 11085,
 "Ġdesire": 11086,
 "Ġsolved": 11087,
 "2014": 11088,
 "uality": 11089,
 "ĠConc": 11090,
 "coordin": 11091,
 "Ġhighlights": 11092,
 "Ġrepresentative": 11093,
 "ikes": 11094,
 "strong": 11095,
 "ĠAustria": 11096,
 "Ġdigest": 11097,
 "Alice": 11098,
 "ustomer": 11099,
 "Ġcircles": 11100,
 "ĠMarsh": 11101,
 "Ġincorporated": 11102,
 "ĠASCII": 11103,
 "itzerland": 11104,
 "Fact": 11105,
 "Follow": 11106,
 "Hel": 11107,
 "Ke": 11108,
 "econom": 11109,
 "uum": 11110,
 "you": 11111,
 "zone": 11112,
 "{{": 11113,
 "Ġawards": 11114,
 "orney": 11115,
 "itan": 11116,
 "Ġpitch": 11117,
 "Ġthro": 11118,
 "ilib": 11119,
 "ĠAch": 11120,
 "ĠAges": 11121,
 "ĠSTE": 11122,
 "users": 11123,
 "child": 11124,
 "iga": 11125,
 "Ġconference": 11126,
 "Ġunless": 11127,
 "Ġ',": 11128,
 "defined": 11129,
 "Ġdistant": 11130,
 "ciples": 11131,
 "Ġentering": 11132,
 "ync": 11133,
 "Ġdetermining": 11134,
 "Ġauthorities": 11135,
 "Ġ1954": 11136,
 "ĠPerform": 11137,
 "Ġbigger": 11138,
 "Ġaccompan": 11139,
 "tuples": 11140,
 "ĠFactor": 11141,
 "ĠElectric": 11142,
 "Ġgallon": 11143,
 "Ġscheme": 11144,
 "ĠWildlife": 11145,
 "cussion": 11146,
 "Ġearthquake": 11147,
 "itudes": 11148,
 "EP": 11149,
 "Practice": 11150,
 "avery": 11151,
 "nia": 11152,
 "oj": 11153,
 "esian": 11154,
 "Ġwine": 11155,
 "elle": 11156,
 "ivery": 11157,
 "ĠCos": 11158,
 "ummy": 11159,
 "ĠBrian": 11160,
 "Ġrugby": 11161,
 "Ġchances": 11162,
 "Ġ-=": 11163,
 "Ġ''.": 11164,
 "ryption": 11165,
 "Ġpharm": 11166,
 "bytes": 11167,
 "Ġinfinite": 11168,
 "Ġapprox": 11169,
 "Ġelectro": 11170,
 "ĠAdam": 11171,
 "minute": 11172,
 "ÂłÂłÂł": 11173,
 "Ġ255": 11174,
 "Ġrealm": 11175,
 "Ġfalling": 11176,
 "Ġsnipp": 11177,
 "LECT": 11178,
 "Ġseemed": 11179,
 "Classifier": 11180,
 "Ġadvantages": 11181,
 "Ġquadratic": 11182,
 "ĠGolang": 11183,
 "Elect": 11184,
 "freq": 11185,
 "infty": 11186,
 "onder": 11187,
 "leans": 11188,
 "Ġrely": 11189,
 "Ġreactions": 11190,
 "ĠTony": 11191,
 "ĠSuch": 11192,
 "Ġassembly": 11193,
 "Ġongoing": 11194,
 "ĠRandom": 11195,
 "Ġkick": 11196,
 "ĠThose": 11197,
 "ruit": 11198,
 "Ġpreval": 11199,
 "Ġcommas": 11200,
 "Ġgranted": 11201,
 "Ġ101": 11202,
 "Ġcurr": 11203,
 "Ġhyp": 11204,
 "Ġdelight": 11205,
 "astery": 11206,
 "ercury": 11207,
 "Unit": 11208,
 "Ġanalyzing": 11209,
 "ĠHarvard": 11210,
 "Ġprecise": 11211,
 "Ġrarely": 11212,
 "ĠAffairs": 11213,
 "Ġinequality": 11214,
 "David": 11215,
 "Field": 11216,
 "Supp": 11217,
 "bow": 11218,
 "tan": 11219,
 "Ġoct": 11220,
 "utely": 11221,
 "idge": 11222,
 "raine": 11223,
 "ĠPi": 11224,
 "ĠBan": 11225,
 "ĠNFL": 11226,
 "ĠGÃ¶": 11227,
 "Ġchose": 11228,
 "Ġ1939": 11229,
 "velength": 11230,
 "arios": 11231,
 "hedral": 11232,
 "Ġposit": 11233,
 "2015": 11234,
 "Ġagreed": 11235,
 "comput": 11236,
 "Ġcarb": 11237,
 "iodiversity": 11238,
 "Ġmodeling": 11239,
 "ĠMechan": 11240,
 "ĠMinistry": 11241,
 "ĠPercentage": 11242,
 "Ġfunding": 11243,
 "ĠEmploy": 11244,
 "Ġsubstitute": 11245,
 "Share": 11246,
 "ĠDataFrame": 11247,
 "Ġdropped": 11248,
 "Translate": 11249,
 "palindrome": 11250,
 "').": 11251,
 ":||": 11252,
 "MC": 11253,
 "brid": 11254,
 "fs": 11255,
 "method": 11256,
 "square": 11257,
 "Ġri": 11258,
 "itting": 11259,
 "Ġpipe": 11260,
 "Ġbags": 11261,
 "Ġmob": 11262,
 "Ġhoney": 11263,
 "olia": 11264,
 "Ġgift": 11265,
 "ĠSa": 11266,
 "ĠCore": 11267,
 "thony": 11268,
 "Ġconn": 11269,
 "quis": 11270,
 "abited": 11271,
 "ĠLower": 11272,
 "ĠLuther": 11273,
 "berry": 11274,
 "ptic": 11275,
 "Ġresist": 11276,
 "ertion": 11277,
 "Ġracing": 11278,
 "Ġremind": 11279,
 "Ġknowing": 11280,
 "Ġ96": 11281,
 "Ġski": 11282,
 "Ġformats": 11283,
 "Ġarranged": 11284,
 "########": 11285,
 "Ġhistorically": 11286,
 "ĠWithout": 11287,
 "Ġbalanced": 11288,
 "Ġemerged": 11289,
 "Ġpriority": 11290,
 "Reader": 11291,
 "ĠFreder": 11292,
 "ĠMachine": 11293,
 "ĠChemistry": 11294,
 "ĠSupreme": 11295,
 "ABC": 11296,
 "Book": 11297,
 "Cost": 11298,
 "after": 11299,
 "fill": 11300,
 "gment": 11301,
 "gression": 11302,
 "multi": 11303,
 "Ġå": 11304,
 "Ġille": 11305,
 "ĠApr": 11306,
 "chars": 11307,
 "ĠBureau": 11308,
 "Ġorient": 11309,
 "ĠRest": 11310,
 "ĠLy": 11311,
 "ĠLook": 11312,
 "Ġarmed": 11313,
 "Ġnegot": 11314,
 "ĠCarib": 11315,
 "ĠMeasure": 11316,
 "Ġ1958": 11317,
 "Ġpopularity": 11318,
 "Ġcontrols": 11319,
 "Ġparticipated": 11320,
 "Ġjournalist": 11321,
 "ĠInteger": 11322,
 "Ġsuffered": 11323,
 "Ġroutes": 11324,
 "Ġinflammation": 11325,
 "Ġvessel": 11326,
 "bourne": 11327,
 "ĠLaboratory": 11328,
 "Ġvibrant": 11329,
 "ĠBuilding": 11330,
 "Ġsimultaneously": 11331,
 "ĠLewis": 11332,
 "Disc": 11333,
 "auth": 11334,
 "bel": 11335,
 "à´": 11336,
 "ĠðĿĲ": 11337,
 "isible": 11338,
 "iture": 11339,
 "itory": 11340,
 "Ġdish": 11341,
 "Ġlunch": 11342,
 "omorph": 11343,
 "Ġgate": 11344,
 "Ġstead": 11345,
 "ĠCle": 11346,
 "ĠCart": 11347,
 "ĠCaptain": 11348,
 "otype": 11349,
 "ĠMun": 11350,
 "Ġconve": 11351,
 "ĠWin": 11352,
 "ĠEmb": 11353,
 "ĠRa": 11354,
 "ĠLect": 11355,
 "Ġneur": 11356,
 "Ġunexpected": 11357,
 "ĠIncre": 11358,
 "Ġ1936": 11359,
 "Ġspots": 11360,
 "neys": 11361,
 "Ġ{\\": 11362,
 "Ġblank": 11363,
 "iversary": 11364,
 "ĠAlan": 11365,
 "onds": 11366,
 "Ġmemb": 11367,
 "Ġdescend": 11368,
 "Exception": 11369,
 "Ġbusy": 11370,
 "ramid": 11371,
 "Common": 11372,
 "ðĿľ": 11373,
 "ĠMySQL": 11374,
 "ĠSwitzerland": 11375,
 "Ġmedication": 11376,
 "Ġevaluation": 11377,
 "Ġstrip": 11378,
 "ĠIDE": 11379,
 "Ġcups": 11380,
 "Ġtransferred": 11381,
 "Ġsurprise": 11382,
 "products": 11383,
 "Usage": 11384,
 "Ġmosqu": 11385,
 "La": 11386,
 "Rem": 11387,
 "Table": 11388,
 "Windows": 11389,
 "mos": 11390,
 "à±": 11391,
 "lections": 11392,
 "ushed": 11393,
 "ĠCam": 11394,
 "igation": 11395,
 "ĠFurther": 11396,
 "ĠEarl": 11397,
 "ĠEinstein": 11398,
 "arten": 11399,
 "Ġ1914": 11400,
 "Ġvariation": 11401,
 "condition": 11402,
 "anned": 11403,
 "Ġdrag": 11404,
 "Ġposted": 11405,
 "Ġdiscussions": 11406,
 "characters": 11407,
 "Ġclubs": 11408,
 "Ġceleb": 11409,
 "Ġphilosopher": 11410,
 "Ġfeedback": 11411,
 "ĠĠĠĠĠĠĠĠĠĠĠĠĠĠĠĠĠĠĠĠĠĠĠĠĠ": 11412,
 "Ġschedule": 11413,
 "transform": 11414,
 "Ġorgans": 11415,
 "Ġnervous": 11416,
 "PE": 11417,
 "Web": 11418,
 "]])": 11419,
 "sample": 11420,
 "was": 11421,
 "atten": 11422,
 "Ġpin": 11423,
 "Ġpray": 11424,
 "arithm": 11425,
 "Ġdating": 11426,
 "Ġnth": 11427,
 "ĠAy": 11428,
 "ĠSent": 11429,
 "ĠCrit": 11430,
 "rav": 11431,
 "ĠMind": 11432,
 "andy": 11433,
 "ĠRain": 11434,
 "people": 11435,
 "Ġ1918": 11436,
 "ĠStone": 11437,
 "Ġformulas": 11438,
 "Ġdisturb": 11439,
 "ĠAlbum": 11440,
 "rowing": 11441,
 "ĠWeight": 11442,
 "odyn": 11443,
 "Ġzeros": 11444,
 "Ġspacecraft": 11445,
 "Ġdocstring": 11446,
 "ĠCorps": 11447,
 "Ġmicrosc": 11448,
 "Ġaccommod": 11449,
 "Ġprecision": 11450,
 "ĠWilson": 11451,
 "balance": 11452,
 "Ġexponent": 11453,
 "ĠSafety": 11454,
 "Ġrhythm": 11455,
 "Available": 11456,
 "Ġtroops": 11457,
 "Alex": 11458,
 "Link": 11459,
 "eenth": 11460,
 "lon": 11461,
 "make": 11462,
 "tri": 11463,
 "}=": 11464,
 "ÈĻ": 11465,
 "Ġï": 11466,
 "Ġtournament": 11467,
 "ismatic": 11468,
 "Ġble": 11469,
 "Ġbees": 11470,
 "ĠEric": 11471,
 "Ġheating": 11472,
 "ĠON": 11473,
 "ritis": 11474,
 "Ġtech": 11475,
 "Ġscatter": 11476,
 "Ġraising": 11477,
 "Ġappearing": 11478,
 "anny": 11479,
 "Ġ1941": 11480,
 "2009": 11481,
 "Ġextracts": 11482,
 "Ġemployment": 11483,
 "Ġobserve": 11484,
 "ĠObama": 11485,
 "Ġmiscon": 11486,
 "Ġbriefly": 11487,
 "Ġdinner": 11488,
 "Ġcircumst": 11489,
 "Ġdramatic": 11490,
 "Ġsucceeded": 11491,
 "localhost": 11492,
 "Ġschedul": 11493,
 "Vector": 11494,
 "aver": 11495,
 "cut": 11496,
 "rat": 11497,
 "Ñĩ": 11498,
 "Ġ..": 11499,
 "Ġtales": 11500,
 "Ġsale": 11501,
 "aration": 11502,
 "Ġell": 11503,
 "Ġeigen": 11504,
 "ĠAqu": 11505,
 "chron": 11506,
 "ĠCould": 11507,
 "ĠPack": 11508,
 "ĠPresentation": 11509,
 "ĠMuhammad": 11510,
 "Ġprotest": 11511,
 "ĠRight": 11512,
 "uda": 11513,
 "ĠJoe": 11514,
 "ieving": 11515,
 "apore": 11516,
 "Ġsmoking": 11517,
 "appro": 11518,
 "Ġpossibility": 11519,
 "Ġglac": 11520,
 "Ġglobe": 11521,
 "ĠAndroid": 11522,
 "Explain": 11523,
 "Ġcricket": 11524,
 "ĠAfghan": 11525,
 "eference": 11526,
 "ĠPoly": 11527,
 "Ġassuming": 11528,
 "Ġpolygon": 11529,
 "Ġfantasy": 11530,
 "January": 11531,
 "Ġmonitoring": 11532,
 "Hz": 11533,
 "Public": 11534,
 "]`,": 11535,
 "hard": 11536,
 "ju": 11537,
 "jav": 11538,
 "oids": 11539,
 "phe": 11540,
 "ä»": 11541,
 "Ġtong": 11542,
 "Ġcache": 11543,
 "esis": 11544,
 "Ġfires": 11545,
 "alem": 11546,
 "ĠAL": 11547,
 "Ġgardens": 11548,
 "ĠHo": 11549,
 "ĠFront": 11550,
 "angered": 11551,
 "ailability": 11552,
 "Ġscope": 11553,
 "Ġ66": 11554,
 "Ġcoverage": 11555,
 "Ġblind": 11556,
 "Ġcurious": 11557,
 "Ġinvention": 11558,
 "arents": 11559,
 "2003": 11560,
 "([[": 11561,
 "Ġgeometric": 11562,
 "Ġruled": 11563,
 "Ġobservation": 11564,
 "ĠBaron": 11565,
 "Ġprize": 11566,
 "Ġdynamics": 11567,
 "ĠPhysical": 11568,
 "Ġharvest": 11569,
 "Ġdelivered": 11570,
 "Ġexponential": 11571,
 "Ġmysteries": 11572,
 "Ġremarkable": 11573,
 "Ġmirror": 11574,
 "ĠVietnam": 11575,
 "Ġsubstantial": 11576,
 "ilibrium": 11577,
 "Educ": 11578,
 "\\;": 11579,
 "jamin": 11580,
 "po": 11581,
 "Ïģ": 11582,
 "Ġsad": 11583,
 "Ġsons": 11584,
 "Ġcav": 11585,
 "Ġfed": 11586,
 "Ġbare": 11587,
 "omed": 11588,
 "ĠAT": 11589,
 "Ġgathered": 11590,
 "ĠPRO": 11591,
 "ĠDakota": 11592,
 "acon": 11593,
 "ĠLind": 11594,
 "ĠHeat": 11595,
 "Ġgenerating": 11596,
 "ĠAlph": 11597,
 "ĠQuiz": 11598,
 "Ġlanding": 11599,
 "Ġweekend": 11600,
 "Ġexplaining": 11601,
 "Ġtelling": 11602,
 "Click": 11603,
 "breaking": 11604,
 "ÐµÐ½": 11605,
 "Show": 11606,
 "Ġdevast": 11607,
 "Ġstrike": 11608,
 "database": 11609,
 "ĠMaryland": 11610,
 "ĠStatus": 11611,
 "Ġthermal": 11612,
 "ĠWriting": 11613,
 "Calculate": 11614,
 "Ġathletes": 11615,
 "Ġproposal": 11616,
 "ĠAdvanced": 11617,
 "ĠPhilippines": 11618,
 "valuate": 11619,
 "Year": 11620,
 "iop": 11621,
 "rine": 11622,
 "Ġ^": 11623,
 "Ġticket": 11624,
 "leton": 11625,
 "ĠTour": 11626,
 "ĠCamer": 11627,
 "Ġforth": 11628,
 "ĠDick": 11629,
 "ĠFer": 11630,
 "ĠFigure": 11631,
 "Ġexceed": 11632,
 "accur": 11633,
 "Ġunt": 11634,
 "ĠUpper": 11635,
 "ĠInvest": 11636,
 "Ġcluster": 11637,
 "ĠKhan": 11638,
 "ĠChris": 11639,
 "cknow": 11640,
 "Ġunderground": 11641,
 "Ġoverw": 11642,
 "2010": 11643,
 "2017": 11644,
 "Ġintervals": 11645,
 "Ġreply": 11646,
 "ĠAlaska": 11647,
 "Analy": 11648,
 "params": 11649,
 "ĠColomb": 11650,
 "ĠImage": 11651,
 "Ġopens": 11652,
 "ĠCOVID": 11653,
 "Ġqueen": 11654,
 "Ġepisodes": 11655,
 "à¥į": 11656,
 "Ġroutine": 11657,
 "forcement": 11658,
 "Ġvaccine": 11659,
 "ĠPeninsula": 11660,
 "Ġpassenger": 11661,
 "Ġdiscipline": 11662,
 "achelor": 11663,
 "Ġtraditions": 11664,
 "Ġiconic": 11665,
 "Bas": 11666,
 "gas": 11667,
 "iated": 11668,
 "Ġtap": 11669,
 "inated": 11670,
 "Ġfiber": 11671,
 "Ġtom": 11672,
 "ulator": 11673,
 "igm": 11674,
 "ĠHills": 11675,
 "Ġwhatever": 11676,
 "riers": 11677,
 "Ġagencies": 11678,
 "oku": 11679,
 "Ġdiagonal": 11680,
 "ĠScala": 11681,
 "à¤°": 11682,
 "ĠSimilar": 11683,
 "Ġrounded": 11684,
 "ĠConservation": 11685,
 "Ġqueue": 11686,
 "rban": 11687,
 "Ġtissues": 11688,
 "plotlib": 11689,
 "Ġuniversities": 11690,
 "Ġpupils": 11691,
 "ĠSoftware": 11692,
 "ĠFacebook": 11693,
 "ĠByzantine": 11694,
 "Austral": 11695,
 "!\")": 11696,
 "High": 11697,
 "OUR": 11698,
 "PM": 11699,
 "dog": 11700,
 "high": 11701,
 "wart": 11702,
 "Ãº": 11703,
 "Ġwars": 11704,
 "leg": 11705,
 "asive": 11706,
 "Ġhorses": 11707,
 "ĠSin": 11708,
 "ĠClo": 11709,
 "ĠPed": 11710,
 "ĠPath": 11711,
 "ĠHon": 11712,
 "vere": 11713,
 "ythag": 11714,
 "ĠOk": 11715,
 "ipse": 11716,
 "Ġ2024": 11717,
 "ĠProdu": 11718,
 "Ġrelief": 11719,
 "Ġheritage": 11720,
 "Ġentries": 11721,
 "server": 11722,
 "ĠExec": 11723,
 "Ġdrinks": 11724,
 "Ġeru": 11725,
 "ĠBegin": 11726,
 "Ġopposed": 11727,
 "Ġantibi": 11728,
 "Ġmenu": 11729,
 "Ġtelephone": 11730,
 "ART": 11731,
 "labels": 11732,
 "Ġutility": 11733,
 "ĠMuslim": 11734,
 "Ġholder": 11735,
 "Ġwavelength": 11736,
 "Ġpanel": 11737,
 "keras": 11738,
 "Ġisolated": 11739,
 "Ġconstituency": 11740,
 "Ġlegislation": 11741,
 "oscow": 11742,
 "Ġseventh": 11743,
 "Ġhence": 11744,
 "April": 11745,
 "âĨĴ": 11746,
 "Ġ``": 11747,
 "Ġsensor": 11748,
 "Ġmg": 11749,
 "Ġmart": 11750,
 "Ġmales": 11751,
 "Ġlakes": 11752,
 "ĠTower": 11753,
 "ĠIde": 11754,
 "Ġbee": 11755,
 "Ġbeach": 11756,
 "ĠBot": 11757,
 "verted": 11758,
 "ĠDor": 11759,
 "ĠFr": 11760,
 "ĠFox": 11761,
 "Ġresort": 11762,
 "Ġcontamin": 11763,
 "Ġassets": 11764,
 "week": 11765,
 "Ġtraditionally": 11766,
 "Ġanswered": 11767,
 "Ġcolony": 11768,
 "Ġindigenous": 11769,
 "2016": 11770,
 "Ġexplan": 11771,
 "roducing": 11772,
 "Ġeducators": 11773,
 "apters": 11774,
 "2007": 11775,
 "Ġviewed": 11776,
 "Ġpromoting": 11777,
 "Ġaccurately": 11778,
 "United": 11779,
 "ĠSwiss": 11780,
 "Ġmaintained": 11781,
 "Ġessentially": 11782,
 "equal": 11783,
 "Ġsegments": 11784,
 "ĠJunior": 11785,
 "ĠHindu": 11786,
 "duplicates": 11787,
 "Ġintricate": 11788,
 "execute": 11789,
 "Location": 11790,
 "NO": 11791,
 "National": 11792,
 "hou": 11793,
 "uf": 11794,
 "Ã£": 11795,
 "Î»": 11796,
 "erving": 11797,
 "Ġmeth": 11798,
 "rock": 11799,
 "unc": 11800,
 "ĠSE": 11801,
 "ĠSound": 11802,
 "ĠCB": 11803,
 "ĠMagn": 11804,
 "aded": 11805,
 "ĠEc": 11806,
 "ĠKal": 11807,
 "Ġadopt": 11808,
 "Ġscales": 11809,
 "merce": 11810,
 "conn": 11811,
 "ĠAnne": 11812,
 "Ġproven": 11813,
 "Ġextends": 11814,
 "Ġdesigning": 11815,
 "Ġglob": 11816,
 "Ġoptical": 11817,
 "Ġstructural": 11818,
 "Ġmusicians": 11819,
 "255": 11820,
 "Ġbringing": 11821,
 "Ġfreq": 11822,
 "Ġestablishment": 11823,
 "Ġhunting": 11824,
 "communic": 11825,
 "ĠAnalyze": 11826,
 "Ġpilot": 11827,
 "ĠQueensland": 11828,
 "anumeric": 11829,
 "Day": 11830,
 "suff": 11831,
 "inals": 11832,
 "Ġtheatre": 11833,
 "Ġsaving": 11834,
 "ĠHou": 11835,
 "ĠRs": 11836,
 "ĠNig": 11837,
 "Ġchannels": 11838,
 "ĠIneq": 11839,
 "Ġimplications": 11840,
 "Ġtwelve": 11841,
 "Ġprediction": 11842,
 "Ġrecre": 11843,
 "comfort": 11844,
 "Ġrepair": 11845,
 "Ġconstell": 11846,
 "ĠĠĠĠĠĠĠĠĠĠĠĠĠĠĠĠĠĠĠĠĠ": 11847,
 "ĠPlot": 11848,
 "Ġfinance": 11849,
 "ĠPrevention": 11850,
 "^{-": 11851,
 "ĠCharacter": 11852,
 "Ġhosted": 11853,
 "Ġremoves": 11854,
 "Ġtimer": 11855,
 "ĠStandards": 11856,
 "Ġinterpretation": 11857,
 "Updated": 11858,
 "Ġresidential": 11859,
 "Related": 11860,
 "ĠCaribbean": 11861,
 "HD": 11862,
 "System": 11863,
 "URL": 11864,
 "Water": 11865,
 "every": 11866,
 "soup": 11867,
 "âĦ": 11868,
 "Ġib": 11869,
 "isinstance": 11870,
 "Ġcattle": 11871,
 "itance": 11872,
 "Ġease": 11873,
 "ĠTut": 11874,
 "elta": 11875,
 "amins": 11876,
 "ĠPur": 11877,
 "ĠPier": 11878,
 "adian": 11879,
 "ĠHamp": 11880,
 "Ġdeploy": 11881,
 "ĠNotes": 11882,
 "Ġ\"))": 11883,
 "ĠOR": 11884,
 "idean": 11885,
 "ĠStage": 11886,
 "Ġdefend": 11887,
 "ĠEnsure": 11888,
 "Ġinterpol": 11889,
 "Ġfeels": 11890,
 "ohyd": 11891,
 "ĠPhot": 11892,
 "ĠPolicy": 11893,
 "Ġmathematician": 11894,
 "ĠRomanian": 11895,
 "Ġpredicted": 11896,
 "ĠYears": 11897,
 "Ġfairly": 11898,
 "rophy": 11899,
 "Ġignore": 11900,
 "seconds": 11901,
 "ĠAgriculture": 11902,
 "August": 11903,
 "ĠExercise": 11904,
 "Message": 11905,
 "Oh": 11906,
 "vari": 11907,
 "worth": 11908,
 "}'": 11909,
 "ÙĬ": 11910,
 "Ġcra": 11911,
 "Ġpets": 11912,
 "rog": 11913,
 "rose": 11914,
 "ĠAe": 11915,
 "ĠSud": 11916,
 "race": 11917,
 "select": 11918,
 "ĠBos": 11919,
 "vec": 11920,
 "ĠRate": 11921,
 "ĠRound": 11922,
 "orest": 11923,
 "Ġ1917": 11924,
 "Ġ1938": 11925,
 "eping": 11926,
 "Ġlistening": 11927,
 "Ġcompact": 11928,
 "Ġmodules": 11929,
 "Ġfever": 11930,
 "Ġcentimeters": 11931,
 "Ġexplores": 11932,
 "ugging": 11933,
 "chnology": 11934,
 "Ġprocessed": 11935,
 "Another": 11936,
 "Ġtechnological": 11937,
 "iking": 11938,
 "Ġ::": 11939,
 "ĠMarine": 11940,
 "Ġtranslates": 11941,
 "Ġbitwise": 11942,
 "pothesis": 11943,
 "Ġdisplayed": 11944,
 "Ġreveal": 11945,
 "Black": 11946,
 "Ġproportional": 11947,
 "ĠFederation": 11948,
 "Ġdiscrimination": 11949,
 "kwargs": 11950,
 "Make": 11951,
 "March": 11952,
 "South": 11953,
 "fol": 11954,
 "fmt": 11955,
 "pool": 11956,
 "Î¿": 11957,
 "à¹": 11958,
 "Ġtick": 11959,
 "rele": 11960,
 "atial": 11961,
 "stop": 11962,
 "ĠSP": 11963,
 "idate": 11964,
 "ĠDanish": 11965,
 "perm": 11966,
 "Ġdissol": 11967,
 "Ġpeoples": 11968,
 "oba": 11969,
 "Ġsomewhere": 11970,
 "Ġmedals": 11971,
 "Ġperiodic": 11972,
 "ĠAssess": 11973,
 "Ġaffecting": 11974,
 "ĠÐ²": 11975,
 "charge": 11976,
 "Ġexecuted": 11977,
 "5678": 11978,
 "feature": 11979,
 "Ġaimed": 11980,
 "Ġcandidates": 11981,
 "elihood": 11982,
 "ValueError": 11983,
 "phalia": 11984,
 "Ġsqlite": 11985,
 "Ġphysicist": 11986,
 "%%": 11987,
 "James": 11988,
 "SR": 11989,
 "dor": 11990,
 "gium": 11991,
 "oa": 11992,
 "track": 11993,
 "}\"": 11994,
 "Ġcous": 11995,
 "esides": 11996,
 "orry": 11997,
 "asures": 11998,
 "ĠTan": 11999,
 "cha": 12000,
 "ĠCelsius": 12001,
 "isted": 12002,
 "ĠPand": 12003,
 "ĠBurn": 12004,
 "antry": 12005,
 "ultural": 12006,
 "Ġtrading": 12007,
 "Ġcounties": 12008,
 "Ġactors": 12009,
 "Ġsheep": 12010,
 "ĠTrump": 12011,
 "Ġdesigner": 12012,
 "ĠScript": 12013,
 "Ġmarble": 12014,
 "enny": 12015,
 "Ġpromoted": 12016,
[...]
